[PAD]
[UNK]
a
b
c
d
e
f
g
h
i
j
k
l
m
n
o
p
q
r
s
t
u
v
w
x
y
z
code
use
error
file
http
test
java
info
new
creat
user
fail
line
set
add
current
need
valu
version
method
run
tri
type
chang
tabl
noformat
data
name
string
issu
time
class
call
return
follow
support
would
one
get
like
implement
null
updat
build
make
messag
configur
log
see
case
work
result
also
check
fix
except
remov
exec
arrow
default
start
select
depend
field
function
caus
page
could
list
server
warn
object
ad
contain
exampl
queri
option
node
gener
process
client
requir
int
key
execut
expect
sourc
request
column
color
order
provid
connect
read
includ
servic
exist
api
allow
properti
thread
std
task
rule
problem
may
id
found
main
load
project
number
instead
oper
index
first
look
failur
cours
upgrad
cach
differ
true
group
link
modul
nativ
go
refer
report
releas
inform
way
step
possibl
document
state
command
size
show
long
perform
write
row
seem
packag
enabl
sinc
handl
path
without
debug
local
manag
base
implicit
cluster
schema
complet
access
pattern
filter
requisit
actual
alreadi
due
delet
throw
view
instal
const
two
abl
compil
activ
click
want
array
plugin
reproduc
valid
paramet
job
still
initi
happen
directori
fals
system
python
sql
pleas
partit
map
copi
store
output
block
instanc
display
public
open
avail
part
input
must
compon
find
init
move
text
close
even
via
take
import
howev
unknown
prerequisit
format
byte
apach
miss
us
stem
char
match
featur
content
statu
multipl
event
end
note
specifi
record
final
improv
date
think
reason
quot
locat
memori
bug
void
help
custom
avoid
url
defin
stream
processor
relat
second
addit
last
context
accept
right
send
static
resourc
search
count
back
introduc
consid
appear
librari
wait
alway
done
beam
empti
know
receiv
config
jira
metric
item
success
moodl
point
singl
specif
might
element
edit
convert
save
recent
mean
attach
script
host
root
admin
appli
modifi
ui
assign
button
replac
anoth
param
entri
attempt
timestamp
comment
latest
logic
respons
descript
mani
review
propos
deprec
limit
anonfun
applic
detail
interfac
level
lock
correct
sure
invalid
address
occur
well
integr
action
nifi
given
similar
window
disabl
ticket
databas
pass
queue
notic
separ
question
better
hive
skip
behavior
session
imag
within
commit
mode
stop
express
sort
jar
lead
attribut
site
join
collect
pipelin
port
header
full
templat
product
detect
environ
extend
unit
someth
submit
print
intern
origin
variabl
place
got
next
maven
old
repositori
doc
doubl
usag
consum
resolv
clean
core
develop
integ
control
assert
stack
everi
plan
lot
buffer
pr
pars
wrong
target
per
timeout
suggest
flink
endpoint
sever
##t
metadata
either
transact
simpl
argument
criterion
present
master
keep
branch
condit
spark
tool
tag
cast
normal
ensur
produc
longer
never
parquet
extern
section
probabl
program
solut
transform
drop
put
optim
permiss
discuss
form
json
hadoop
iter
password
good
trace
merg
thing
verifi
least
trigger
role
facil
total
larg
unabl
batch
solr
download
common
let
screen
upload
duplic
insert
reduc
##i
remot
space
token
parent
patch
boolean
navig
profil
futur
whether
give
deploy
side
bit
finish
ignor
scenario
secur
consist
region
student
docker
snapshot
web
none
affect
say
unsign
hdf
previou
invok
much
lambda
ambari
storag
distribut
overrid
made
pa
switch
flag
break
guid
engin
post
restart
serial
compact
authent
come
charact
indic
sdk
statement
around
privat
replic
exit
artifact
bundl
left
grade
share
correctli
stock
member
schedul
jdbc
etc
login
migrat
mark
administr
elaps
equal
binari
retri
extens
php
tab
properli
directli
email
model
basic
rang
continu
compat
rather
though
zookeep
length
shown
##id
ci
undefin
flow
clear
els
ignit
automat
alloc
export
aggreg
regist
calcul
turn
frame
rest
manual
insid
languag
namespac
child
stage
describ
goal
scan
author
catch
notif
realli
segment
refactor
design
licens
track
split
xml
self
##r
declar
offset
rais
prevent
definit
creation
yet
sent
thrown
renam
correspond
vector
standard
##er
annot
handler
enter
worker
identifi
necessari
runtim
setup
le
topolog
icon
later
comput
reader
encod
leader
runner
thu
convers
ok
claus
incorrect
util
arg
pm
##l
compar
ca
expos
pull
retriev
##d
nice
period
pool
small
disk
easi
##a
account
sum
top
folder
written
constructor
menu
executor
persist
categori
fetch
broken
screenshot
approach
bind
assum
expr
rel
max
app
git
becom
##e
effect
decim
github
posit
stat
direct
primari
pyarrow
browser
increas
determin
repeat
behaviour
gradl
jvm
anonym
dictionari
global
na
visibl
abil
mayb
structur
dataset
mention
observ
enough
javadoc
broker
driver
sometim
scope
remain
teacher
spec
restor
translat
bad
hold
associ
protocol
##nam
day
##n
quiz
accord
backup
potenti
##c
bigint
socket
adjust
nest
idea
random
term
label
unexpect
quantiti
checkpoint
kafka
extra
style
cc
bucket
interpret
##except
encount
listen
##o
maintain
polici
##typ
dynam
yarn
capabl
particular
html
suppli
reli
built
hidden
flowfil
therefor
fine
network
varchar
proxi
confus
simpli
termin
choos
quit
tree
csv
db
jdk
mail
##p
repo
seen
leak
min
synchron
hash
io
easier
sync
graph
foo
confirm
statist
loop
uniqu
approv
topic
cancel
certain
groovi
compress
cover
publish
entir
understand
investig
reset
rust
otherwis
pend
##m
short
slow
submiss
registri
regress
minut
commun
def
concurr
evalu
benchmark
push
exclud
parallel
sens
wrap
npe
float
easili
amount
monitor
hit
solv
nameandoptionaluid
prefix
situat
whole
coder
flush
uri
explicitli
box
dump
prefer
val
fill
major
variou
kind
noth
cost
everyth
fact
instruct
platform
pom
hard
immedi
render
workaround
dev
across
appropri
builder
filesystem
writer
bar
reflect
summari
extract
inconsist
org
shutdown
forc
refresh
sampl
usernam
launch
special
append
datanod
background
googl
ssl
modal
##manag
##test
ozon
begin
framework
strategi
struct
prepar
algorithm
enrol
relev
known
zero
##or
purpos
syntax
bool
crash
lost
minor
consol
decid
leav
anyth
deseri
entiti
mechan
cpu
expir
physic
titl
high
calcit
junit
netbean
orc
alter
construct
eg
str
##s
classpath
combin
anon
urn
startup
suit
symbol
word
unnecessari
##f
reach
expand
##g
moment
explicit
believ
maximum
forum
gc
complex
editor
real
##b
impact
often
proper
three
alia
bound
progress
##fil
cmake
replica
factori
jenkin
thrift
mvn
reus
intermedi
env
inner
regular
protect
credenti
discov
revis
avro
cli
especi
recommend
machin
encrypt
simplifi
underli
workflow
hand
peopl
altern
bodi
dashboard
past
##x
boost
previous
transit
home
distinct
tupl
##v
##li
best
pick
scale
interact
reject
##en
bump
sequenc
uuid
alert
linux
websit
year
aw
dir
transfer
analysi
fishey
increment
lucen
conflict
lower
individu
histori
parser
ident
rout
dropdown
##info
constant
ioexcept
jetti
prioriti
safe
cleanup
referenc
taken
chunk
ip
answer
vm
adapt
along
great
zeppelin
advanc
instanti
wo
geod
dataflow
legaci
repres
older
##u
heap
ask
backend
enforc
##writ
auth
big
redirect
filenam
dummi
free
other
restrict
shut
df
explain
vulner
perhap
treat
##key
##st
align
catalog
kill
spring
coupl
##valu
agent
head
respect
temporari
abstract
travi
panel
nullabl
team
carbon
fulli
##path
channel
involv
sec
unus
hang
comparison
union
usual
connector
theme
upon
area
err
obtain
async
lookup
panda
abort
##read
calendar
inventori
dialog
feedback
kernel
non
inlin
##context
##et
fall
timer
carbondata
imposs
littl
##it
clone
numer
pointer
counter
ideal
kerbero
minimum
auto
hello
subsequ
##map
##util
far
hbase
live
phase
emit
knox
unless
coordin
hour
##k
bootstrap
forward
##servic
henc
minim
outsid
newer
although
guarante
##on
audit
desir
destin
effici
emp
took
accumulo
assembl
checkstyl
race
##handl
daemon
zk
deal
delay
edg
signatur
overwrit
certif
datatyp
interv
person
precis
raft
heartbeat
var
executerecurs
hi
meta
rati
redund
##factori
##h
descriptor
press
succeed
volum
offlin
cassandra
storm
tcp
openlmi
pack
anymor
deptno
groupid
namenod
archiv
coverag
rate
backward
hide
notebook
cran
ldap
eventu
figur
lib
sink
##build
fatal
intend
behat
pid
raw
twice
tell
truncat
##in
aim
measur
neg
primit
recoveri
timezon
achiev
difficult
rebal
higher
meet
acquir
hint
interest
month
partial
contribut
exchang
om
popul
benefit
blob
ipc
quick
ec
critic
grpc
pcollect
repli
sign
datamap
incorrectli
readi
stabl
stacktrac
utc
autom
bring
callback
checkbox
escap
kb
netti
nightli
particip
wal
##opt
captur
cloud
earlier
exactli
illeg
predic
spent
##list
bean
experi
localhost
payload
planner
macro
materi
##al
rewrit
rpc
sling
decod
scheme
visual
gandiva
someon
##queri
choic
enum
infer
diff
fun
invoc
loader
suppos
slot
badg
focu
hostnam
inject
today
age
caught
equival
larger
mysql
round
##impl
flaki
peer
##est
conf
famili
reload
shell
flight
##cach
card
constraint
resolut
bulk
ie
lack
scroll
traceback
ubuntu
##at
candid
grid
togeth
inherit
##set
demo
greater
notifi
prior
suspect
verif
wrapper
deriv
javascript
metastor
regard
subset
pardo
pretti
roll
alpha
scm
faster
ran
shade
super
visit
zone
##nod
artifactid
embed
nullpointerexcept
offer
tblproperti
transport
##data
ctype
enhanc
propag
score
princip
durat
typic
ccm
shard
away
cooki
emerg
grep
scala
ant
dn
liter
elasticsearch
hook
rebuild
chain
conveni
len
selector
highlight
ide
incom
layer
practic
bash
fulfil
incompat
##messag
balanc
concern
subject
tl
##count
##field
artemi
classload
thin
relnod
guava
msg
sensit
smaller
typo
arraylist
corrupt
jmx
soon
awar
datafus
div
stuck
almost
omit
bank
belong
red
todo
##config
##el
fire
registr
manifest
overhead
disconnect
dob
contract
logger
low
mock
speed
##abl
delta
mb
oracl
regardless
destroy
newli
num
pod
readm
bigqueri
draft
ex
leverag
semant
##tim
##serv
crucibl
inpath
upper
analyz
discoveri
feel
supervisori
unsupport
gadget
huge
watch
tablet
thank
##str
desc
exact
modif
revert
threshold
upstream
##ev
essenti
wheel
care
cron
kwarg
serv
ago
deleg
signific
zip
backport
central
chrome
cxx
iceberg
instanceof
mismatch
structfield
violat
##an
asynchron
dispatch
failov
leaf
ranger
rocksdb
behav
fallback
recurs
reproduct
signal
softwar
unfortun
went
contact
fork
recov
relationship
whenev
cce
devic
logicalproject
loss
preview
stuff
anyway
azur
frequent
scalar
secondari
tx
##ag
##stat
establish
guess
intent
interrupt
mask
##error
##index
mac
portabl
udf
##io
brows
cursor
mobil
third
tm
##vers
behind
domain
problemat
thought
codebas
effort
marker
pair
caller
millisecond
overflow
topdir
worth
##eid
##request
anywher
arbitrari
cs
hashmap
mutat
owner
##group
##ur
func
stay
subscript
activemq
blank
capac
keyword
lt
matter
popup
sleep
averag
doj
hardcod
lti
maco
membership
mv
yield
preserv
standalon
##filt
datafram
exceed
predict
whose
bottom
sub
vertex
estim
parti
represent
drag
mix
poll
saw
tostr
trait
fd
jm
moodlenet
pdt
sstabl
wiki
##respons
curl
errorpron
ha
span
##ent
bamboo
plasma
week
confluenc
fragment
layout
rid
sessionid
ship
tez
closur
gmt
mostli
camel
english
fn
footer
##oper
datasourc
deadlock
elimin
jame
rowid
##class
##configur
evict
hop
hope
lose
subclass
suppress
trim
##record
nov
obviou
operand
asf
independ
phoenix
slightli
thrpt
##properti
bunch
cd
ddl
jackson
offici
acl
assertequ
cell
clinit
col
outer
pdf
vec
width
##w
##z
amd
cumul
factor
javahl
recreat
repair
seed
elect
gfsh
latenc
mainten
quickli
##processor
##provid
demonstr
fa
gateway
phpunit
protobuf
video
expens
ref
reserv
snippet
temp
##array
##load
amqp
glib
kubernet
minifi
onlin
salari
servlet
substitut
##loc
earli
keystor
letter
medium
recogn
##funct
##schema
matrix
workcontexthandl
ever
exclus
httpchanneloverhttp
overview
sexp
virtual
inspect
proceed
accumul
explan
firefox
op
regex
ye
##entri
##il
agre
arr
concept
latter
procedur
whatev
##act
affin
empno
httpclient
pagin
playground
trivial
##cli
downstream
livi
readabl
usabl
avg
dead
fast
logicaltablescan
runnabl
typeerror
##queu
##result
cross
infinit
jump
overal
respond
##log
ack
anyon
disappear
reconnect
shot
sp
sprint
stori
vote
##stream
cycl
dplyr
fit
revers
stderr
timelin
tomcat
##y
crowd
learn
plain
prune
sendrequest
somewher
svn
uniqdata
##bas
act
consumpt
dot
hb
hm
keytab
studio
trunk
##cod
assumpt
clearli
codec
datetim
rubi
supervisor
unifi
watermark
##ri
atla
paragraph
rm
stale
##ion
##vector
appar
health
nil
npm
precondit
uncheck
vendor
##is
##up
advantag
cmd
echo
flexibl
nimbu
world
##eexcept
incomplet
obj
subtask
td
##im
came
deni
digest
gstringimpl
inact
pad
decis
eclips
helper
outdat
unresolv
conda
impli
plu
secret
uncaught
aka
cat
chart
envir
idl
natur
permit
silent
throwabl
toggl
wide
##dir
##j
atom
collector
decommiss
httpparser
impl
isol
seri
slice
wizard
##ar
##check
changeset
collaps
intellij
osgi
piec
suffici
suitabl
##url
appenderdaemon
chanc
cipher
consequ
discard
httpgener
said
submarin
##rul
alnum
hover
httpconnectionoverhttp
mount
postgresql
retain
spout
##end
gui
near
numpi
strict
##ut
among
architectur
busi
gt
intermitt
neither
recordbatch
recordtyp
significantli
##q
##ul
accordingli
asc
baselin
blink
deliveri
power
samza
##nt
chosen
cut
mcv
mpack
oom
purg
trust
##stor
absolut
convent
har
overload
qa
sender
similarli
src
##buff
##task
cve
fake
preset
serd
shuffl
somehow
analyt
ctx
dimens
refus
room
subscrib
wherea
##etest
##us
buf
clientstreamlistenerimpl
dedic
kept
mirror
privaci
realiz
rmi
simpler
variant
nioservercnxn
##iter
##thread
correl
defer
infra
queu
redi
sasl
segfault
talk
technic
unsaf
##eimpl
##object
delimit
journal
partner
prompt
strang
blocklet
dofn
gcc
hierarchi
land
parenthesi
ttl
cento
immut
logo
park
pictur
quorum
rememb
verbos
##od
inputstream
presto
sep
threw
tibbl
unpack
##connect
ajax
committ
enumer
face
mind
prototyp
substr
travers
unlik
##op
##partit
citi
keyspac
life
paus
ping
repl
rowcount
suffix
useless
widget
##ic
bigger
contributor
curat
dag
deliv
grace
packet
preced
sale
savepoint
xxx
articl
atto
frozen
reliabl
risk
slower
sso
##um
blog
cf
compos
forev
front
garbag
indent
markdown
overlap
overridden
proto
tc
throughput
unix
##point
##work
bytebuff
decreas
held
replay
tracker
warehous
##listen
##sh
copyright
debian
dept
obvious
occurr
outlin
postgr
##etyp
##ist
##sess
##yp
colour
explor
hdp
openjdk
randomli
regener
##metadata
##pool
##row
boot
fault
feb
grant
ia
jan
kv
lang
resultset
si
whitespac
wish
bin
eval
extrem
grow
malform
repro
supervis
tid
touch
websocket
##ertest
##param
amp
chines
doe
fresh
gap
multi
rank
toward
##resourc
##sourc
##view
drawer
gemfir
getwaittimem
hashcod
illegalargumentexcept
jqueri
middl
particularli
quota
resourcemanag
tbl
timeseri
carri
checksum
complic
gdb
grader
meant
mqtt
nar
oauth
play
rollback
satisfi
swagger
unavail
##doc
##mod
board
bridg
center
concaten
countri
enam
ingest
ptransform
resum
star
userid
white
xsd
##emanag
##format
checker
crate
introduct
ml
originaltransact
sh
sizeof
unbound
##batch
##lin
backlog
consider
despit
favor
frontend
ivi
logginghandl
mailbox
pane
scanner
##db
##erimpl
##tabl
accident
comma
complain
currenttransact
experiment
lifecycl
openssl
privileg
proof
shipment
smtp
starter
stdout
testcas
thousand
timestampedvalueinsinglewindow
webservic
##address
##client
##host
##text
##ti
clover
fieldschema
histor
mislead
mistak
onto
placehold
rebalanc
sonar
tserver
##enam
annoy
dec
font
handshak
lzycomput
rc
runtimeexcept
attack
classnam
composit
eas
jna
leas
pip
po
pre
recon
setter
tablenam
unicod
unomi
weird
##async
##executor
adopt
arriv
beyond
calc
facet
fairli
flume
lazi
mm
placement
prometheu
truststor
upcom
agg
autocomplet
expiri
four
igniteconfigur
iotdb
jun
meaning
ssh
wrote
##bl
##ch
##einfo
##inst
abc
deactiv
green
happi
jsp
nan
scott
storeroom
unencod
corner
followup
gradebook
hudi
microsoft
occasion
panic
precommit
println
rare
rfc
weight
##offset
##refer
##tool
apr
basi
chat
exhaust
gzip
hardwar
late
llap
pop
raml
stringtyp
transient
##consum
##ed
archeri
assertionerror
await
cleaner
concat
digit
insight
mitig
obsolet
opportun
portlet
rat
taskexecutor
unnam
##numb
claim
cm
cpp
die
exce
expans
mainli
million
pure
remark
resiz
throttl
trail
txn
wonder
##am
##box
##join
##ord
ambigu
besid
bloom
classic
classifi
distinguish
experienc
gb
januari
jcr
marshal
somewhat
spi
stacktraceel
swap
##attribut
##block
##command
##em
ahead
checkout
degre
errno
glossari
outerclass
pg
proven
seek
soh
wors
##om
beelin
brought
clarifi
de
deep
discu
picker
qualifi
solrj
valueerror
##byt
##json
##metr
##outputstream
breadcrumb
consolid
dockerfil
employe
gain
heavi
imap
inclus
lesson
mbean
organ
temperatur
##ifi
##pag
abi
cl
everywher
inde
initialis
keyboard
nav
odd
pk
sequenti
shall
subqueri
symlink
wast
##ap
##item
##runn
##si
##statu
##storag
announc
cert
collat
feather
gcp
opinion
recip
repeatedli
simul
singleton
##convert
##express
##ol
accur
appendentri
blueprint
dbl
enrich
flatbuff
half
mdc
router
serializ
traffic
troubl
wildcard
##ct
##efactori
##ex
##gener
boundari
datanodeinfowithstorag
fuse
halt
infrastructur
narrow
re
research
shiro
spend
stabil
tail
tick
venv
##control
##head
##method
##start
##un
acknowledg
anchor
bitmap
divis
getter
href
john
mandatori
nonstd
oozi
rack
rotat
rpm
strip
submodul
taskmanag
tubemq
turtl
##column
##paramet
approxim
contrast
en
feder
feed
lwp
manner
mockup
presum
seq
tour
trash
yaml
##fi
##sampl
##spec
##token
blue
brace
flatten
friendli
ftp
gather
illustr
integertyp
optimis
shift
slack
stub
tutori
##ack
##channel
##root
afterward
elsewher
ftap
gone
height
innerservic
intersect
isa
mar
tarbal
##epath
##lock
##of
##region
##rel
##seri
becam
bigtop
cfg
datastor
geometri
lint
modern
necessarili
presenc
reveal
selectionkey
seriou
snappi
spot
sticki
straightforward
veloc
##econtext
##input
##ow
##to
atlassian
beta
broke
coalesc
diagnost
gobblin
greatli
horizont
incorpor
mapreduc
mess
mous
nullptr
provis
spin
tini
unnest
unrel
ux
actor
adhoc
clang
dfdl
durabl
everyon
foreign
logsearch
nodetool
opt
prop
recompil
tinymc
train
tue
tune
##ehandl
##ep
##repositori
##upd
acc
apart
bolt
charset
curli
decrypt
eof
forget
harder
interruptedexcept
javac
jwt
mr
perspect
reactor
rework
sal
setproperti
sexprec
shape
simultan
sudo
tie
verb
visitor
war
##ari
##contain
##directori
##og
##pars
##sql
##ss
bracket
changelog
cntrl
commandlin
compet
creator
encapsul
guidelin
hack
mapper
parrot
pojo
portion
price
sftp
systemd
unclear
##ead
##edexcept
##erfactori
##fn
##int
##strategi
##timeout
bceval
benefici
book
bpid
challeng
completablefutur
concret
dialect
divid
elast
findbug
hundr
ifram
jenkinsfil
ram
rawtyp
simd
slash
temporarili
upsert
##chang
##cont
##lib
##ng
##port
##schedul
arc
avatar
chooser
cohort
conform
cp
datum
examin
ineffici
localset
metastorag
mkdir
moreov
multientri
mutabl
pin
rewritten
sedona
toolbar
workshop
##ationexcept
##ef
##graph
##rang
agreement
angular
arithmet
assertthat
attent
backtrac
bbb
cython
demand
dig
enqueu
epic
former
illegalstateexcept
imagin
instrument
jmap
jql
lm
milli
ontrigg
own
safeti
subsystem
surpris
teardown
tooltip
tr
uniniti
viabl
##alloc
##th
accessor
border
drive
dt
grab
highli
kudu
mongodb
orphan
punct
recipi
rtype
socketchannelendpoint
surefir
svnkit
unset
##bi
##compon
##eg
##inputstream
##registri
##uri
broadcast
dom
downgrad
excess
facilit
foreach
outcom
quorump
reloc
renew
stateless
succe
unchang
##bean
##down
##eservic
##mark
##ot
##ov
##siz
aliv
dist
fedora
freez
hashset
implicitli
instant
internet
jobmanag
nn
pdx
pressur
qualiti
ratio
slave
tertiari
##ad
##bind
##help
##iv
##length
##link
##logg
##sink
appreci
aspect
bypass
cardin
cq
defaultalloc
diagram
disallow
emb
fastprimitivescod
guardrail
karaf
logicalaggreg
monday
pathnam
sentenc
##match
arm
callablewrapperdofn
lowercas
markup
mod
percentag
sit
threadloc
tmp
typenam
unrecogn
vertic
wire
xmln
##ay
##col
##conf
##emap
##es
##oc
##ort
##out
##pi
##ql
##sync
##valid
ast
avatica
bom
circumst
decor
decoupl
duckdb
hotspot
inf
march
metron
perman
poor
programmat
rng
stringbuild
tempor
toolkit
workplac
##ionid
degrad
exercis
fewer
fieldnam
hiveproject
indefinit
linear
mon
negoti
net
nginx
robust
strong
wordcount
##ain
##arg
##efil
##jar
##nk
##ori
##put
##word
acid
backpack
blocker
cap
chunkedarray
collis
dtest
httpsm
hunspel
isinst
journalnod
kinesi
linenumb
mut
nonfairsync
outputcolumnnam
overwritten
req
substrait
surfac
troubleshoot
tsfile
unfinish
vari
workload
##ck
##ekey
##emessag
##eri
##eutil
##ey
##job
##pt
##report
bq
charsequ
fe
formula
guard
hh
logicaltyp
magic
motiv
ongo
snip
spotless
sqlnode
tend
throughout
till
##ac
##cal
##ecli
##eprovid
##eread
##nc
##script
##visitor
##ytest
bigdecim
descend
dirti
endofstreamexcept
extent
frequenc
guest
homepag
keepererrorcod
kotlin
logicalfilt
met
ordin
outputstream
partitionid
reconfigur
refin
sampler
subproject
supplier
unnecessarili
unread
vault
volatil
##ata
##level
backpressur
cacheconfigur
crossbow
doesnt
excel
histogram
logicaljoin
occupi
parameter
perfectli
polygon
se
sorri
sqlexcept
tgt
th
ultim
unlock
ut
webapp
welcom
##api
##cr
amazon
ascii
asm
customis
distanc
dml
eq
familiar
firstnam
forgot
insuffici
jul
km
learner
lifetim
manipul
reusabl
solrcor
sound
testsuit
toler
tricki
unstabl
watcher
wed
##elisten
##ish
##limit
##rd
##split
assess
brew
cbo
cv
datastream
determinist
dict
dirroot
dispens
equip
fraction
invokehttp
kick
kit
malawi
nb
perf
reachabl
simplest
spawn
tensor
vc
##admin
##ebuild
##ect
##scor
##search
##sp
alon
alphabet
assigne
clearer
compani
conduct
cql
dark
dc
differenti
do
drain
easiest
explod
homebrew
imo
interceptor
issuer
launcher
llvm
logout
microservic
multipli
oct
oppos
outgo
pain
passert
popov
shortli
smart
smoke
swallow
tar
tweak
typeoverrid
zetasql
znode
##clust
##def
##if
##plan
##protocol
##transform
##ymanag
attr
bulletin
chr
conditionobject
cqlsh
cuda
dens
focus
greenhopp
honor
navbar
rdd
readonli
redzon
rexnod
startgrid
structtyp
strut
suspici
unauthor
unwrap
##ro
##wrapp
absent
advisor
bag
br
cdc
concurrenthashmap
delayedlisten
dispos
dont
ff
foundat
freon
installsnapshot
margin
meter
mojo
nbconvert
nodenam
openwir
oserror
popular
relbuild
solrclient
st
suffer
svnjavahl
univers
wrongli
##condit
##descriptor
##efilt
##elist
##hash
##plugin
##vm
compilejava
cxf
enclos
essay
flatmap
geograph
grafana
mvcc
pollut
predefin
roughli
routin
sdf
serialversionuid
summar
trip
tz
uid
whilst
xx
##auth
##collect
##eprocessor
##equ
##etask
##flag
##intern
##ip
##modul
##term
##transport
addindex
at
circular
clientid
commonli
dataload
deadlin
enhancerbyspringcglib
griddhtpartitionsexchangefutur
idempot
jni
jq
knowledg
loc
massiv
nondex
norm
oldest
pipe
pluggabl
pq
programm
recycl
regularli
reorder
rowtim
strictli
threadpool
toolchain
unhandl
uninstal
unregist
worklog
##adapt
##classload
##eload
##eopt
##futur
##gen
##long
##ni
##nul
##output
##polici
##snapshot
##ter
asserttru
clazz
cst
debugg
dep
distro
donat
druid
furthermor
memtabl
myid
odbc
prefetch
sc
sed
spatial
subvers
tensorflow
trade
unexpectedli
##ab
##ail
##complet
##day
##evalu
##form
##ld
##less
##msg
##produc
##re
android
autocommit
certainli
chapter
circl
closer
ctor
decompress
derefer
dtype
evolv
fullnam
hex
hibern
hivetablescan
incub
invis
multicast
offload
organis
readbufferbytesalloc
redact
runtimeerror
rw
spell
spinner
weak
windowintofn
worst
##dispatch
##erequest
##exist
##func
##man
##me
##mp
##nd
##ool
##tr
apt
arch
audienc
bam
biggest
bold
canva
datastorageconfigur
ensembl
five
fli
forbidden
inspir
laptop
lie
multipart
nearli
newest
ownership
par
promis
sanit
shortcut
solrcloud
sun
tech
traceid
zstd
##ach
##ast
##ci
##dr
##ebuff
##emetadata
##encod
##hi
##ingli
##select
alt
archetyp
ascend
black
compilestat
consensu
diagnos
docstr
dsl
eol
epoch
flat
folk
footprint
getopt
jena
jndi
keepal
li
moder
ninja
pubsub
rabbitmq
realm
reindex
ring
seb
sqlfieldsqueri
stripe
superset
##callback
##ecommand
##edescriptor
##eerror
##equeu
##eset
##etim
##hook
##len
##model
##na
##spac
##window
alluxio
appl
asyncframebuff
bottleneck
classnotfoundexcept
clusternod
depth
fhir
gnu
gpg
grey
grunt
healthi
ibm
jobid
mockito
networkloc
newlin
nexmark
notabl
ownabl
quickstart
reactiv
rerun
resid
rfile
setuptool
smith
stall
stdin
subtract
suspend
tabletserv
transpar
ugli
unblock
unsupportedoperationexcept
win
##ask
##collector
##compar
##ecount
##endpoint
##engin
##ict
##import
##let
##rdd
##se
##second
aa
analys
cnt
deb
distcp
empnam
encourag
files
fri
hot
identif
img
invari
jedi
lag
lineag
maintabl
modular
nanosecond
ng
nobodi
okhttp
pay
poc
promot
prone
pytest
relax
rubric
sandbox
saniti
secundu
shadow
slider
subprocess
variat
wcag
writeid
xpath
yui
##bit
##econfig
##ek
##enc
##iz
##ment
##ock
##sc
##system
##timestamp
altogeth
appveyor
aris
buggi
classcastexcept
clickabl
credit
dlab
dyn
erron
formal
grammar
helix
intfield
invert
light
ln
meso
nio
nm
oidc
primitivearray
rdbm
redesign
rollup
runtest
scratch
smallest
stdclass
sy
unlimit
valgrind
varieti
yetu
##aggreg
##ak
##atch
##bucket
##copi
##edvalu
##efutur
##enum
##exampl
##expr
##interv
##la
##num
##off
##ra
##rol
##socket
##son
##sort
##stest
##tl
##ver
absl
am
backslash
baz
breakpoint
carbonsess
clearcas
constantli
courseid
dataprovid
dim
enterpris
enumerabletablescan
ephemer
favourit
gaug
human
igniteinstancenam
impala
imperson
inconveni
jaa
jakarta
jemalloc
latitud
med
methodnam
msvc
multilang
nextindex
nodeid
notnul
prove
radio
react
rollov
roundtrip
sarg
sigsegv
summaris
tf
ul
underscor
##ang
##art
##dt
##eclass
##econfigur
##failur
##ff
##go
##ig
##ionexcept
##ix
##pl
##process
##rm
##unit
abnorm
assist
bob
clickhous
clock
createsourc
empid
evolut
fashion
flyway
fr
granular
htonll
igniteex
ipykernel
neighbor
outofmemoryerror
owasp
paper
parentenv
probe
puppet
seal
serverconnect
sphinx
statemachin
subdirectori
svg
theori
txid
undesir
vvm
wget
xmlbean
xsi
yum
##back
##char
##df
##enod
##ft
##ll
##low
##oot
##own
##ream
##rl
##run
##servlet
##sid
##srespons
##support
##topolog
##val
##yservic
cdata
certserialid
colon
comfort
configset
convey
daili
danger
decrement
elif
employ
evid
grouppartitionid
idx
inheritdoc
inspector
itemid
jaxb
leadership
logappendentri
makefil
math
onnext
outputflush
postcommit
prohibit
qti
reopen
rtl
serf
smallint
speak
stick
straight
talledlocalcontain
thriftserv
tombston
unpars
whitelist
xwiki
##cl
##descript
##exec
##find
##hold
##ia
##ib
##inform
##init
##max
##proxi
##sio
##tor
avgt
bill
binaryrow
canon
cid
com
consumerset
desktop
deviat
dialogu
ee
el
exploit
groupbi
intuit
lazili
lru
metaexcept
mustach
news
outstand
pc
primarili
pst
rand
ret
rspm
scalatest
searcher
signed
skew
sm
tableenviron
tb
tempdir
textarea
unzip
##access
##alis
##anc
##attempt
##bound
##ecord
##egroup
##evers
##get
##inputformat
##lan
##mail
##now
##oken
##tag
##track
##xml
affinitytopologyvers
attributeerror
binarytupl
bower
cascad
ccach
commandstor
dagschedul
docid
epi
exploratori
flaw
fo
gen
hivefilt
hub
incur
iso
juli
lightweight
mime
opposit
ought
overs
player
polymorph
principl
prod
queryent
reconstruct
regexp
safari
sparkexecutestatementoper
sqlcomplianceserviceimpl
surround
unreach
walk
workbench
##ath
##dunittest
##eindex
##erespons
##fail
##gin
##hashmap
##ight
##ioncontext
##kind
##mapp
##mpl
##prefix
##resolv
##server
aug
bachelor
bc
bisect
bot
builtin
cant
cold
compliant
contrib
cyl
dedupl
flip
forceflush
highest
hr
idnumb
ignitecach
jacoco
jmh
jpa
jstack
june
lineitem
loner
meanwhil
mini
okay
overdu
pd
pig
preload
remind
rep
scrollbar
sensibl
srv
sshd
stackoverflow
stamp
survey
synthet
##cas
##earray
##eat
##ecach
##env
##erid
##eseri
##esess
##execut
##initi
##onli
##os
##po
##qu
##selector
##sit
##uc
##vent
abandon
alongsid
autosc
clippi
cog
compens
complianc
concours
confluent
conjunct
driven
dunit
frx
gave
gem
gha
gridcacheprocessor
guidanc
heavili
hg
iw
kafkaspout
ksort
lastnam
lift
linter
longitud
lowest
malloc
microsecond
minu
nodemanag
onerror
raftserverimpl
repetit
rlang
securitymanag
soap
somebodi
ssn
street
su
symptom
tester
tika
tripl
worri
zlib
##ant
##ash
##ationschema
##bin
##com
##coordin
##da
##ec
##erecord
##ess
##first
##itcas
##ject
##ma
##mut
##project
##ptr
##ref
##rit
##shard
##sl
##termin
##vari
##warn
##wd
##ytyp
amend
april
august
badli
barrier
binaryobject
ble
bytestr
caret
cta
culprit
cumbersom
depart
dto
emr
endian
errorcod
et
fair
fieldtyp
figma
filenotfoundexcept
getconfigur
guic
hung
inetsocketaddress
insensit
isset
latch
loos
mailet
meantim
misalign
misconfigur
mytabl
offic
onward
orderbi
phrase
protoc
recalcul
regressiontest
remap
scorm
sparql
spars
spill
spock
timecr
tome
ton
triangl
uniformrandomprovid
unittest
unwant
uppercas
vaccin
vectorschemaroot
##altyp
##app
##ark
##cor
##eact
##erm
##erv
##ionfactori
##ionservic
##ionutil
##ir
##launch
##lookup
##lust
##ount
##permiss
##receiv
##transact
##ud
accompani
accomplish
advic
ae
anim
awesom
ban
bitset
blah
boilerpl
callabl
cargo
categor
chose
clash
clientconfigur
coloc
commitlog
consecut
crud
derbi
em
ext
feasibl
filepath
fname
gossip
gradual
graphic
gridcachedatabasesharedmanag
griffin
gson
hyperlink
implic
insecur
iri
licenc
logback
logicalvalu
love
mergecont
naiv
os
patient
perfect
plaintext
poi
realis
realiti
selenium
simplif
spread
stand
stellar
strlen
tablescan
trick
uat
uml
versioninfo
vice
vignett
xsimd
##analyz
##and
##ass
##efunct
##emethod
##erconfig
##erexcept
##ewrit
##iontyp
##lt
##ok
##pd
##plac
##ram
##scann
##ui
##yt
acceptor
accuraci
asset
audio
autogener
batchsiz
behalf
blobstor
bother
cachenam
deprecationwarn
dlq
docvalu
etl
fat
fate
fmt
foreachop
genericrecord
glanc
globalwindow
govern
indexwrit
ioerror
kerber
led
lf
mgr
perflog
pme
pragma
processel
propertynam
pwd
revisit
sebastian
six
sse
stockout
stomp
streamprocessor
superclass
tp
typeinform
umbrella
unhealthi
unlink
unord
vob
zoom
##add
##ationtest
##aus
##can
##chunk
##decim
##dex
##ean
##erel
##estat
##her
##hread
##onnect
##part
##payload
##per
##pp
##prop
##sn
##vc
##watch
##ykey
accommod
advertis
appclassload
applyjavanatur
arrowbuf
bearer
bo
bugfix
carbonread
compound
cuamba
currenc
daffodil
depot
district
ethread
exhibit
eye
failonwarn
filewriteaheadlogmanag
freed
german
glob
gradlew
guy
handi
hiveconf
indextool
listarray
lubrid
modulecl
nativemethod
pipelineopt
pushdown
rebuilt
recal
regionnam
repoinit
scalabl
sd
seemingli
serialis
sidebar
sponsor
staff
synonym
tackl
testcompil
tidi
treemap
truth
txntype
unauthent
uncondit
underneath
uniform
warranti
webwork
##driv
##eoper
##eresult
##erservic
##esrespons
##ionmanag
##ionst
##ke
##ml
##notfoundexcept
##omplet
##pipelin
##ress
##sum
##tre
##yserv
asap
bare
brand
bytecod
convertrecord
corpor
difficulti
elig
fastclassbyspringcglib
filestatu
floor
gh
holder
hp
hurt
hyphen
instructor
interfer
invoketestmethod
jersey
largest
lectur
mdl
messageid
mingw
mutex
newthread
nois
ofvoidmethod
pill
pixel
plug
portfolio
publicli
pvalueish
qpid
rev
revok
rle
sa
semi
sha
stress
subcommand
synchronis
tcpcommunicationspi
tmpdir
tradeitem
trident
twitter
typeid
unsuccess
wan
workspac
xcode
##ationcontext
##buf
##delet
##detail
##ecod
##edtest
##een
##enabl
##erul
##ew
##fac
##ht
##http
##lass
##main
##memb
##memori
##merg
##mt
##oo
##orm
##pol
##pred
##rap
##rowcount
##sa
##saf
##scan
##sdirectori
##ta
##tablesink
##tablesourc
##ton
##upl
##ux
##ybuild
##yoper
abf
ag
ann
argv
asyncloc
calculatorservic
cloudera
consent
cr
ctrl
datacent
displaynam
dooper
eventtyp
fold
forbid
formatt
freq
fst
groupbykey
implementor
indirectli
ipython
ist
kryo
lastappliedindex
matcher
mistakenli
monthli
notimpl
octob
partialeq
plenti
proprietari
pt
pubsubmessag
pypi
pyspark
redistribut
regrad
reqpath
seper
sortord
spanner
spotbug
standbi
starttim
subtl
swegner
tableid
therebi
tinyint
trackback
trystagepackag
unknownfil
unselect
unusu
vcpkg
wc
weekli
wise
##argu
##av
##balanc
##cast
##do
##ea
##eadapt
##edd
##edindex
##edt
##elet
##erconfigur
##ermanag
##eschema
##esnapshot
##gi
##gl
##har
##hint
##ian
##kit
##mi
##proto
##spi
##summari
##yid
##ynam
##zon
ab
ac
advis
aid
akka
arraydata
attend
augment
automaton
bigqueryio
clerk
clientnamenodeprotocol
clutter
conclus
constrain
containerid
dataflowrunn
defect
divo
drpc
endswith
exceptioncaught
execplan
executesql
executionexcept
felix
fqdn
gdpr
getdata
gii
gpl
gpu
harm
hashaggreg
hastop
heurist
irrelev
jk
jobgraph
jre
jupyt
legal
lengthprefixcod
linker
lsb
md
mib
micro
notion
osx
pages
pem
pickl
planbefor
portal
prepend
resourceresolv
resultpartit
retent
runus
safer
saml
sensor
snap
sni
sporad
ssp
strongli
stumbl
taskattempt
techniqu
told
tradit
uncompress
varbinari
##assign
##ationid
##awar
##clos
##commit
##dl
##echeck
##edb
##edirectori
##eobject
##ept
##erefer
##ert
##ertyp
##esourc
##flow
##grid
##identifi
##ign
##ik
##ionlisten
##issu
##ith
##meta
##min
##pattern
##seg
##slist
##sutil
##ten
##typeinfo
##ular
##unt
##var
##vi
##volum
##width
aforement
analog
antlr
buffers
circleci
cmg
columnar
customfield
disadvantag
drawback
elev
ellipsi
enlist
errormessag
firstli
fuzz
gamepointid
gbk
glue
gray
hivecatalog
hnsw
hood
ignitecost
improp
innodb
institut
intel
intercept
intro
isempti
kafkaio
ldc
leftov
malici
mapr
mdi
metricregistri
miniclust
mq
multiplex
nbyte
nearest
nicer
oak
offsetof
openid
orchestr
overriden
percent
pi
reassign
referencedata
relsubset
resend
retcod
sake
school
scrape
septemb
sf
shim
shorter
shortnam
snapshotindex
speedup
spuriou
sqoop
sslcontext
sslcontextfactori
tablemanag
teamciti
truli
ugi
unmarshal
unsur
valuabl
wider
withnewexecutionid
##acl
##alid
##book
##cept
##cmp
##eal
##edev
##eentri
##emod
##eplica
##eproperti
##ernam
##estatu
##estest
##eurl
##ext
##extens
##for
##framework
##ingstrategi
##ink
##ken
##le
##mergerul
##notfound
##ns
##oint
##orn
##par
##replica
##rg
##rotocol
##send
##step
##target
##tx
##ump
##way
##xid
##ynod
absenc
anti
aria
backoff
bigtableread
bucketid
codegen
columnnam
commitlogposit
compli
compressor
connectionloss
contextid
cor
darwin
directrunn
dll
dotnet
dy
earliest
emul
enumerablecalc
environment
executioncontext
executorservic
exponenti
extractor
februari
firewal
flatlaf
forcepromis
fsync
ga
generateflowfil
getfil
getvar
groom
hivemetastor
ignitekern
inputformat
kinit
lc
logview
maprecord
mergejoin
mina
misc
multithread
nextcloud
nt
obscur
optimist
outbound
outputformat
prematur
ptr
reinstal
restructur
ro
sigact
simplic
social
spam
startpoint
suddenli
systemml
tablesourc
tenv
trap
triag
typeof
usecas
videoj
wave
wont
zookeeperserv
##alnam
##anag
##append
##backend
##binari
##capac
##eaddress
##edmessag
##edtyp
##eiter
##elock
##environ
##erunn
##evolum
##exchang
##fold
##gn
##hdf
##imit
##iontest
##lat
##layout
##lm
##milli
##monitor
##our
##ox
##proc
##rc
##recordread
##right
##ru
##sen
##slot
##suit
##urn
##ycontext
##yobject
##ype
advisori
amq
amsiz
angl
apolog
asan
assemblynam
autosav
bb
bergmann
bkd
blame
breakag
carbondatasourcehadooprel
cglib
cleanli
clob
commoditytyp
continuum
costli
counterpart
defaultvalu
dest
dictionaryarray
downsid
dst
executequeri
faq
faulti
french
fuseki
gotten
gpdb
grain
ignitecheckedexcept
im
imei
inadvert
jane
laf
luke
mapelem
ord
pageid
parallelgc
pcoll
penalti
plural
precompil
psql
pulsar
quotat
rec
reldatatyp
remedi
rh
serversessionimpl
servicetyp
slowli
sn
sole
sparkcontext
streamlin
substanti
subtre
tcpdiscoveryspi
technolog
tenant
tight
timestamptyp
transmit
ttransportexcept
unload
validatesrunn
viewer
viewf
volcanoplann
webserv
wherebi
##accessor
##as
##board
##bynam
##cfg
##connectionfactori
##dev
##econnect
##edata
##efield
##ement
##eview
##filenam
##fileread
##filesystem
##ick
##ionstrategi
##miss
##modifi
##not
##pc
##pick
##princip
##product
##rack
##repo
##requestprocessor
##roduc
##schem
##scop
##sd
##sset
##struct
##te
##unn
##walk
##yfactori
abbrevi
abus
addr
addresssanit
adl
beamsql
blow
borrow
brief
bugzilla
bullet
caffein
cest
characterist
charg
clever
clinic
combo
comprehens
discourag
divert
dplgridnodenam
draw
endless
exn
fieldset
fp
fut
futurewarn
genexpr
goodby
gtest
hidpi
igniteexcept
ignitetablescan
impress
impuls
indirect
influxdb
introspect
invers
irrespect
isnul
jdbcio
jekyl
kata
law
legend
longfield
loopback
mari
matur
minio
modinfo
mongo
mtcar
multiset
needl
nf
onmessag
ozonemanag
panick
pdxtype
preconfigur
processresourc
programid
putdatabaserecord
rsa
rstudio
scalarfunct
scmcli
scorer
servicenam
sesskey
snprintf
spike
squar
ssd
storeincharg
streamer
streamexecutionenviron
tbd
tip
tumbl
tuplecod
udt
uncov
undeclar
undocu
unneed
unpredict
updateattribut
valuevector
ver
versa
visibilitymodifiercheck
webhdf
xenial
zxid
##aft
##ali
##author
##bal
##benchmark
##chain
##cmd
##csv
##deploy
##easync
##eddata
##edir
##equeri
##erbuild
##ercli
##evector
##fram
##ful
##heartbeat
##heck
##ield
##ilt
##ingexcept
##ionconfig
##mat
##nci
##net
##option
##posit
##pu
##req
##sexcept
##shel
##sign
##sion
##sm
##span
##sservic
##ssl
##stack
##stateservic
##tain
##top
##tree
##type
##ue
##ug
##updat
##vis
##yprovid
##yutil
addstep
al
anybodi
anycast
calledprocesserror
camera
channelsid
clariti
cn
cnd
collabor
columnnumb
conn
consul
cordova
countdownlatch
crazi
dask
dataproc
destructor
dockerhub
dramat
enc
envelop
everytim
expert
extradata
fieldinfo
fileinputstream
filestor
fineract
foobar
geospati
gettopkey
goto
gstring
headless
httpsolrclient
iana
incognito
influenc
invit
jasper
jettison
jobclient
kdc
la
linkedlist
mappartit
mc
methodinvocationauthor
mit
movement
mute
mytim
nodej
noop
normalis
offend
peek
processsess
provision
qtime
queryid
rbac
retract
rexcal
sessionst
shrink
soft
structarray
suffic
surviv
syncer
tablepath
tailfil
testcontain
testindextoomanydoc
thirdparti
trafodion
underlin
undo
unmarsh
webhook
webpack
webpag
wysiwyg
xyz
##aliz
##bar
##ce
##clud
##connector
##doubl
##eam
##ear
##eas
##ecr
##eev
##eloc
##eresourc
##estatist
##execsvc
##executionexcept
##file
##ght
##grad
##ignor
##iti
##label
##leas
##ler
##mask
##mm
##name
##observ
##pa
##pack
##pad
##pec
##profil
##program
##putstream
##rait
##raph
##requesthandl
##roup
##rpc
##rray
##sg
##tf
##titl
##uct
##ult
##umb
##ycod
##ylist
##yset
algebra
approx
arrang
asid
binaryread
blacklist
blocksiz
bonu
brotli
cacheobjectbinaryprocessorimpl
capit
catalognam
cdi
cheap
comm
commiss
commitprocessor
confid
contenthash
craft
createdtim
ddlsemanticanalyz
deeper
denot
dequeu
dozen
ducktap
execnod
executiongraph
facilityid
fingerprint
flood
foodmart
freemark
functionnam
gate
getattr
glyphicon
goraexcept
goroutin
hasher
hocon
importantli
indexserv
infoset
invokevirtu
javatyp
jobconf
jobmast
judg
jwk
knn
ld
libarrow
listcomp
listfil
localdatetim
matlab
mere
mmap
nano
networkenviron
newstat
nvarchar
offheap
opaqu
openssh
overcom
partli
perforc
pgsql
pmd
pro
propertykey
propertyvalu
rb
rebas
reboot
replacetext
resourceid
serviceload
slide
startdat
surnam
symmetr
testdb
textual
tiff
tile
transmiss
udaf
udp
unassign
unspecifi
urlencod
usiz
vaniti
vf
wip
writabl
xerc
##ationservic
##codec
##con
##custom
##dg
##eattribut
##elimit
##enti
##eq
##ercontext
##ern
##eschedul
##estamp
##estor
##estr
##fit
##fract
##ger
##gr
##groupid
##html
##httprequest
##ingdirectori
##integrationtest
##interceptor
##interfac
##ionhandl
##ionnam
##ionstatu
##iontim
##jm
##ki
##kin
##mast
##no
##oad
##ofn
##ong
##ough
##pair
##pr
##ract
##red
##remov
##repli
##retri
##rowid
##seq
##sftp
##shandl
##signatur
##sread
##styl
##su
##trait
##tupl
##uff
##unittest
##xbean
##year
##yimpl
##ypolici
##yprocessor
##ystrategi
##ytim
aaa
accid
argu
brinjal
checkerframework
classif
clusterst
co
commod
compactor
configmap
configopt
consumekafka
converg
cool
cred
crypto
dbname
debuginfo
decemb
deduc
defaultschedul
deflat
defragment
deptnam
deviceinformationid
drastic
eagerli
eloy
enumerablemergejoin
equat
etag
exam
fi
flake
gcloud
geom
getvalu
groupset
hasnext
httpcompon
httpcore
hypothesi
igniteexchang
importerror
inetaddress
infin
jaw
jline
keyset
lh
linger
linkedhashmap
lldb
loaditer
loan
mappartitionsintern
microprofil
misspel
nameservic
nonodeexcept
nuget
nullif
objectstor
omid
outag
parquetdataset
pdxinstanc
preparedstat
proce
promin
propertydescriptor
quantil
rdf
receipt
recordbatchread
reimplement
relationshipdef
responsehead
rexbuild
rich
rough
sane
semaphor
settl
shadowjar
shorten
showcas
sigabrt
slight
slowdown
standardflowfilerecord
statuslogg
stringarray
tempfil
testabl
testng
teststream
testthat
textfil
threadpoolexecutor
tim
timerkey
timeunit
tracer
traitset
transpos
understood
uniqueid
unverifi
updateid
varianc
wake
wesm
wherev
will
wsdl
xstream
youtub
##alt
##andid
##appli
##ars
##bolt
##cc
##checkpoint
##chema
##cnt
##cnxn
##co
##ctx
##dat
##dataset
##destin
##di
##ebyt
##ecal
##edescript
##epassword
##eproxi
##eserv
##esink
##esult
##eus
##finish
##float
##flush
##frag
##gg
##has
##ingservic
##ioninfo
##iontimeout
##iss
##lookupservic
##mit
##node
##ost
##ourc
##pan
##registr
##rep
##repl
##rk
##rot
##smap
##sr
##svers
##templ
##tt
##wait
##war
##yqueu
##zip
abortstag
accountid
activecountri
arrowstreamwrit
au
auxiliari
award
baseurl
briefli
bubbl
buildsrc
callsit
carbonwrit
ckeditor
coercion
concis
concurrentmodificationexcept
consult
cont
crlf
cwd
dash
dataregionconfigur
dd
defens
denomin
diverg
dorunrunrundadorunrun
dr
dropbox
ejb
esc
filearea
finder
flavor
fnapi
forgotten
fragil
functiondefinit
functionopt
fuzzi
gender
globallogoutpageurl
handletasksetfail
hashtabl
hepplann
inaccur
incid
indexqueri
ingr
jcek
kettl
knoxshel
levora
listvector
logicalcorrel
ltr
lua
mahout
mat
memorypool
merger
multiscansess
netstd
nextfutur
noexcept
nonnul
nu
nullpoint
nulltyp
occas
oid
png
polish
popenarg
proj
projectjoind
pub
quiet
recordread
redeploy
redo
reduct
relset
reshuffl
resili
resourcespecifi
retir
retryuptomaximumcountwithfixedsleep
ridx
rsync
runoptionallywithpassfailreport
samzacontain
semver
smoketest
sqlstate
stockmanag
stringr
stylesheet
subfold
suboptim
swift
tap
ten
testclass
timemodifi
timeoutexcept
traversesubnod
umask
unhelp
unrespons
varint
widx
wipe
##ai
##ake
##ard
##ationhandl
##cat
##children
##clean
##decod
##definit
##disk
##docvalu
##dump
##ebatch
##ecapac
##edinputstream
##egener
##eitem
##ejoin
##eless
##eof
##eoutput
##epars
##erepositori
##errunn
##esampl
##escan
##etch
##expir
##exporterspi
##fd
##hen
##ingqueu
##interpret
##ionimpl
##ionresolv
##ka
##lead
##lint
##los
##ndex
##nfo
##opolog
##osit
##pac
##packag
##pen
##pos
##rat
##realm
##rn
##ron
##scoveri
##sec
##simpl
##statist
##transl
##unch
##union
##weight
##wt
##yact
##yread
##yrespons
adoptopenjdk
alias
alpin
ami
appid
backgroundwork
bandwidth
banner
biginteg
bounci
bouncycastl
bundler
burden
caption
causal
clip
clue
compromis
connectionlossexcept
crucial
damag
dbcpconnectionpool
decltyp
deem
deliber
destruct
directbytebuff
dismiss
distributedtest
downcast
dri
encodinglist
endif
erd
eslint
excerpt
execsql
executesqlrecord
facebook
feeder
fileformat
filesystemdataset
forth
friday
friend
fundament
getproperti
hdd
healthcheck
hikaricp
ignitenamedinst
intens
irc
jointyp
jsch
jsf
jumptoapplicationthreadserverstreamlisten
keyerror
knoxsso
logget
loginfo
lwm
machineri
meaningless
meth
mike
minikdc
myuser
newcom
nexu
nick
notat
opentrac
ordinari
overlay
pointless
pong
poorli
pose
projectendd
qbank
quartz
querysqlfield
queuenam
quicklink
recover
resourcetyp
rethrow
revamp
roadmap
salesforc
salt
san
sbt
scene
servicecomb
smell
spnego
starvat
steal
submitrequest
tee
tessel
tightli
tlp
typecheck
uber
unapprov
unbalanc
unescap
unmodifiableset
vanilla
whiteboard
withplann
workgroupcategorynam
xapi
zombi
##actor
##addr
##af
##alst
##aram
##atori
##bc
##begin
##button
##classnam
##conn
##constraint
##desc
##docu
##dur
##dx
##each
##econtain
##edispatch
##edit
##edkey
##edloopjoin
##eel
##eformat
##ein
##eio
##eit
##ekeypair
##eliveri
##emetr
##equest
##erev
##erg
##erhandl
##ermiss
##ers
##erst
##esecuritygroup
##espec
##etr
##etrack
##evel
##ewar
##export
##fg
##filewrit
##found
##ibl
##icon
##imageattribut
##imageattributerespons
##ingconnect
##instancesrespons
##ionmessag
##ionrul
##lab
##lot
##mak
##marshal
##ob
##ommit
##ontain
##oud
##pli
##quest
##rag
##ransform
##rebal
##recordsetwrit
##rom
##roperti
##scal
##session
##ship
##squeri
##swrit
##tch
##tter
##wo
##xist
##xn
##xxx
adher
ai
angularj
appnam
ar
arbitrarili
arrayindexoutofboundsexcept
babel
bigbluebutton
boundedtounboundedsourceadapt
broader
btn
castl
ceil
cet
china
cibot
codepath
committe
complement
con
cosin
createtim
cube
currentus
da
dangl
decorrel
deepli
detach
disrupt
distributionzonemanag
eat
elem
enddat
escal
eu
eventthread
executionenviron
favour
flinkrunn
flux
gaa
gear
geo
glassfish
groovyc
hdpcore
heapsiz
htl
hybridtimestamp
impos
inappropri
inher
inod
inputg
intact
interleav
linkag
listsftp
lo
longtyp
median
mem
msck
mvpartitionstorag
myclass
night
numberformatexcept
objectid
oncomplet
onef
pagememori
partkey
paul
plexu
posix
prev
priorit
projectcod
proport
qp
qr
qri
ra
reltosqlconvert
remaind
robot
searchterm
selectresult
sizeinbyt
skeleton
slotrequestid
snakeyaml
snapshott
sparksess
splitter
stash
stc
streamingfilesink
tck
tcpclient
termindex
terminolog
theoret
treeset
uncom
unenrol
unreli
virtualenv
workgroupcategori
wrt
xxxx
zephyr
##alu
##aph
##artifact
##ategi
##ationfilt
##bu
##bug
##bykey
##const
##credenti
##datanod
##datatyp
##der
##dexcept
##emb
##eng
##ength
##enumb
##epartit
##erkey
##ermetr
##esc
##esimpl
##essag
##etimeout
##event
##extractor
##factor
##fo
##ha
##hor
##hostnam
##hreadpool
##ili
##ime
##ionoper
##java
##lang
##last
##lit
##lo
##mer
##mon
##napshot
##new
##next
##notifi
##obj
##oos
##ose
##ous
##overrid
##parallel
##rank
##scheck
##sclust
##sist
##state
##sub
##tablenam
##tin
##tri
##uncondit
##ve
##watermark
##xi
##ycli
##yconfigur
##yexcept
##ymap
##yqueri
##yus
acceler
adam
adesc
aggfunct
agnost
allevi
amt
ap
appleclang
authoris
autoclos
basedir
batchsess
binder
bindresourc
bintray
bloat
bu
bytearray
bytearrayoutputstream
bytesref
carbont
checkin
classdesc
clojur
coerc
cogbk
columnreferenceid
columnuniqueid
conflat
conserv
contradict
corelo
createt
david
devtool
di
diamond
disclaim
discret
disposit
doa
dolor
drill
ducktest
eight
entrypoint
entryset
eo
everybodi
exe
execbatch
executionfail
foreground
freemem
gaussian
getnam
getstat
hacki
hazelcast
hcatalog
hduser
hht
hired
hivejoin
hortonwork
hq
httpcontext
icu
inbox
interruptflag
isdimensioncolumn
isnt
issortcolumn
jac
japanes
javax
joint
jraft
jsdoc
justifi
keyext
kib
legitim
listenhttp
logfil
logicalplan
luck
man
mangl
mariadb
memorymanag
messi
money
monoton
mozilla
nbtime
nethandl
numberofchild
objectnam
origint
partitiont
pb
phone
photo
picocli
pipelineid
plane
postgi
preaggreg
precedenceord
prefixmap
prepopul
processcontext
processrequest
ptf
putal
radian
readahead
readr
referr
relay
relmetadataqueri
reorgan
residu
restclient
ruleset
runmain
safemod
sat
scatter
schemaordin
scio
semijoin
sessioninfo
settimeout
snort
sophist
sqlidentifi
sqlline
sqloper
squash
sslcontextservic
statuscod
strftime
struggl
styleguid
subdir
subtyp
supersed
syntact
syntaxerror
terribl
texcept
thick
tier
timeseriesfunct
tox
trailer
transactionid
trusti
trycatchlist
tunnel
typefactori
typehint
unari
uninitialis
unreason
unskip
upd
utilis
viewfilesystem
watchedev
webconsol
webui
whichev
wild
wwwroot
xarg
##acc
##activ
##ame
##answ
##arybuild
##ase
##ationplugin
##atu
##ax
##ba
##bject
##bytebuf
##compat
##datumread
##ecas
##ecatalog
##ecompar
##edbi
##edinput
##edread
##edregion
##edsourc
##eer
##efacetcount
##efault
##eleg
##elength
##entifi
##entiti
##entrepositori
##eref
##erimag
##erpool
##erprovid
##errul
##erwrapp
##esort
##eth
##eti
##eu
##failurehandl
##filepath
##from
##hang
##hom
##icul
##icvalu
##iew
##ind
##ionerror
##ionev
##ionprocessor
##ionprovid
##leaderelect
##light
##mgr
##most
##ne
##netvconnect
##oi
##onfigur
##optim
##pg
##pon
##pools
##privileg
##publish
##ransport
##riv
##room
##rror
##rt
##rv
##sav
##sdir
##selftest
##shap
##spect
##sst
##string
##sv
##through
##til
##transposerul
##unct
##unk
##upload
##ward
##we
##withretri
##yindex
##yl
##ymessag
##ys
##zero
administ
apo
assertfals
atomicinteg
baserow
beaster
bid
bloomfilt
bogu
broad
bsd
cacheclientproxi
camelcas
cancellationtoken
car
ch
channelexec
circuit
clustercli
colleagu
colloc
compareto
conceptu
configfil
conftest
continuefunc
continueresult
csvreader
datadir
dataformat
datanodeinfo
datastoreclass
del
denial
dependabot
dllpath
dmproperti
dname
doubt
draggabl
dropwizard
ea
eclipselink
educ
est
eventid
favorit
fecru
fileio
fileset
flightrpc
freelist
gcsfilesystem
getcallsitearray
getdatastor
gmake
graduat
greet
gssexcept
hawtio
hole
improperli
integrationtest
interim
interop
invokestat
islocaldictcolumn
javafx
jit
kadmin
lake
leaderid
lenient
locatorjoinmessag
megabyt
microsystem
mileston
mutual
mxnet
nc
notfound
orient
ozonemanagerservic
pariti
parseexcept
percentil
perl
phpdoc
pivot
playback
pmc
postfix
powermock
preprocess
proc
productnam
putkudu
pyflink
reformat
repackag
replyto
repr
reprex
resultt
resulttyp
retrial
sadli
scalecub
screencast
sdfboundedsourcedofn
seamless
semanticexcept
semicolon
serversocket
sheet
sibl
sigterm
solari
sooner
sshclient
sslengin
stringhashfn
strpo
subpackag
tablestat
taskid
te
textfield
threaten
thumbnail
timeoutmilli
trystart
txt
typedef
typeinfo
typescript
unreleas
versionid
waiter
wt
xdebug
xubo
ycsb
yellow
##air
##ampl
##ansform
##ao
##ara
##ationprovid
##attach
##authent
##bundl
##catalog
##caus
##ccess
##ceiv
##cel
##chedul
##compact
##configurationschema
##contextfactori
##convers
##correl
##deseri
##distribut
##drop
##ealthmonitor
##ebinari
##eblock
##ecim
##ecollect
##ecompon
##econsum
##edalia
##edesc
##edprogram
##edstream
##edtim
##edul
##efn
##egr
##einput
##ejob
##emeta
##eoffset
##ermigrationtest
##erng
##erplugin
##erymanag
##estim
##estorag
##estroy
##esystem
##etopolog
##ework
##exact
##executioncontext
##featur
##hid
##hon
##hub
##idx
##imag
##imestamp
##ingd
##ingmanag
##inish
##inn
##intuit
##invok
##iondefinit
##ison
##kil
##lap
##ls
##managerrunn
##namespac
##nder
##nit
##nn
##omi
##ood
##open
##origin
##ou
##ounc
##ound
##outofbound
##parquet
##pickl
##plann
##press
##quant
##random
##readwritelock
##requir
##resourcemanag
##restart
##rocessor
##rop
##ror
##rowtyp
##rp
##rypt
##sapi
##scalar
##sclassload
##scontext
##scount
##serializersnapshotmigrationtest
##snam
##sol
##storagehandl
##success
##thi
##tli
##trac
##ust
##vok
##windowfunct
##wm
##ybuff
##yc
##ycach
##ycheck
##yd
##yinfo
##yrequest
acero
acker
adequ
adjac
aload
amongst
ancestor
applytransact
argc
atomicboolean
awk
awkward
ayush
binarytyp
birth
blindli
booleanqueri
cacheserv
camelcontext
carbonwriterbuild
cassert
catalina
cdn
ciao
classmethod
clusternam
codeheap
collid
commitindex
conscel
consumergroup
corecontain
correlationid
creationtim
cutoff
dealloc
debt
dependencymanag
deselect
dfsadmin
dofninfo
doxygen
drawn
dual
ecosystem
electron
entail
execcb
executescript
failsaf
fed
fh
flash
flex
focal
frustrat
funnel
getaddrinfo
getfilestatu
glog
gridcommonabstracttest
harden
hashpartit
hat
hebrew
helm
hlc
hoc
ignitebitupl
ignitetestresourc
ii
imho
implem
indexid
infiniteend
inflight
interoper
ipaddress
isnotnul
isopen
jaccard
jcach
jobmanagerrunn
joe
jolokia
jython
lappli
leasehold
likewis
linq
lucki
macbook
maxlength
mid
miscellan
misus
multiway
mysqli
namedlist
nasti
nbsp
ndv
necess
nextint
nonod
novemb
nv
obey
odata
ognl
onleaderelect
optyp
ou
partition
partitionkey
perm
pf
phantom
pipefail
poison
preprocessor
pseudo
putfil
py
pydict
qf
quicker
ration
readal
realist
reattempt
recognis
reconcil
recur
remotesolrexcept
roe
rogu
rowgroup
runloop
samesit
sharedstatesampl
shoud
sid
signup
skin
smooth
smoothli
sparksubmit
specul
sqltransform
stl
streamtableenviron
studi
superflu
synaps
tablefunct
tablesink
tabletskeyvalu
tephra
termqueri
textbox
textbuff
thursday
timestampfield
timevalu
tmaster
treatment
tuesday
uncommit
unrecover
unsatisfi
unsort
userag
versu
vision
walkthrough
xz
yesterday
##ableexcept
##ablesourc
##ableuniformrandomprovid
##aci
##adata
##agg
##alia
##appl
##aryvalu
##au
##bench
##cap
##categori
##color
##columnvector
##compil
##cooki
##cpp
##cu
##dao
##datasourc
##dc
##dd
##dep
##dk
##dmin
##dog
##dto
##eabl
##eaggreg
##eak
##edfield
##edfil
##edon
##eep
##eet
##egion
##einst
##elay
##ell
##empl
##empti
##entid
##epoch
##epolici
##eproject
##erconnect
##erd
##erol
##errecord
##ertask
##erthread
##ervalu
##esi
##esit
##evalid
##eventtyp
##evolumerespons
##fect
##fileformat
##follow
##formatt
##gon
##handlerfactori
##heap
##ingtask
##ingtest
##ionview
##isit
##joinrul
##junittest
##kafka
##kg
##ko
##latch
##llow
##mag
##mar
##met
##metaclass
##nst
##ont
##oop
##outputformat
##partition
##pass
##pdx
##persist
##pgp
##printf
##prior
##ransact
##ray
##readyexistsexcept
##reportingtask
##requ
##requestproto
##review
##rin
##round
##sanit
##sb
##sconsum
##senum
##sfil
##so
##sqldialect
##sreport
##star
##streamoper
##testbas
##throw
##tp
##tream
##ub
##ubpartit
##udf
##uild
##und
##uo
##voc
##vot
##walarchives
##with
##wn
##ybean
##yconfig
##ydata
##yfil
##yfilt
##yr
ace
aem
aggress
airnotifi
alpn
anticip
applink
arrayfromjson
assemblyloadcontext
asterisk
autoload
azkaban
beforehand
bigtabl
binaryarray
bookkeep
bounc
bp
bro
bufferedread
builddir
byteman
campaign
carbondatarddfactori
cayenn
checkansw
checklist
cite
classof
cleartool
closeabl
compris
connectionfactori
connectionid
contrari
convinc
corsair
createrequest
curiou
datas
dbm
dear
defeat
dereferenc
desk
dictionarykey
dirnam
discrep
distributedsystem
distributionmanag
doctyp
eb
emoji
enumerablesort
enumerablevalu
evenli
executionvertex
failureprocessor
fal
favicon
filechannel
flame
flowcontrol
fnc
fsimag
getal
getschema
getsiz
gif
glitch
gora
graalvm
grok
grown
growth
grpclogappend
grpid
gwtifi
hapi
hiveaggreg
homedir
ignitecli
inlinetempl
intermediari
intvector
ipfind
ir
jcloud
jdbctablescan
jobserv
josh
jsoup
jupit
justif
knob
knoldu
knoxtoken
leafread
librarydepend
librdkafka
lighter
liststatu
locald
localmanualcach
localport
marina
mathjax
maxim
memorystor
mercuri
metamodel
micronaut
mimalloc
mimetyp
minc
mine
mixin
mssql
multibyt
multicollector
myservic
negat
neon
newvalu
nextlong
noauthexcept
nop
np
octet
omega
omkeyinfo
oql
orderid
ozonef
parametervalu
paramt
parm
pie
pkgconfig
poolentri
portugues
proctim
productiond
projectid
pylint
qe
querystr
raftlog
randommergepolici
rd
reaper
redefin
redundantmodifiercheck
regionserv
reltraitset
remotedeliveri
requirej
resourceprofil
resultstag
retryoperationwithdelay
rexliter
rexsimplifi
rscript
salesman
scrub
sdv
sendheartbeat
setvers
sex
silenc
silli
smarter
sockettimeoutexcept
solid
sortedmap
spare
sqlite
sqlparser
stackoverflowerror
stemmer
stopallgrid
streamtask
stringfield
stupid
sudden
svc
tam
taskrunn
teach
tediou
teradata
testmethod
timefram
toni
tru
tsocket
ubsan
unknownhostexcept
unnot
urgent
usa
usingruntimemod
viewabl
wakeup
wall
weblog
writerindex
xy
##ablemap
##accept
##alcalc
##allow
##als
##alsprovid
##andcheck
##andport
##archiv
##arr
##arydecod
##ate
##ateaddress
##ationresult
##ber
##blob
##calc
##callqueu
##centr
##cess
##checksum
##communicationspi
##contextservic
##cost
##cp
##cq
##cript
##ctl
##curr
##cursor
##dli
##docid
##docvaluesfield
##domain
##ebundl
##echeckpoint
##econvert
##ecret
##edetail
##edi
##edmap
##edproperti
##ehash
##ehold
##einterfac
##elftest
##elogg
##email
##ener
##enestedloopjoin
##enthandl
##enu
##eout
##epag
##erbi
##erceptor
##erf
##eselect
##estrategi
##estream
##etestcas
##etre
##etri
##eventlisten
##evisitor
##factoryimpl
##failov
##famili
##forward
##ga
##glib
##hal
##hand
##handler
##hat
##ike
##imarytyp
##implementor
##indb
##ing
##ingtim
##ino
##ionmap
##ionpolici
##ionqueu
##ionrequest
##ionstat
##lac
##lc
##lement
##lemetri
##lett
##managerimpl
##media
##metric
##migrationtest
##month
##nano
##nic
##nsi
##ocket
##odel
##ola
##ommand
##ondit
##onerror
##ontinu
##password
##pat
##pel
##perm
##pid
##pipelineopt
##rb
##recordbatch
##regionobserv
##releas
##respond
##resultpartit
##resultset
##revis
##rib
##rocess
##rout
##rr
##ructor
##scach
##scli
##sens
##sequ
##serd
##sessiontimeout
##sfactori
##shuttl
##sintern
##sk
##smonitor
##socketaddress
##sof
##sregistri
##sreportingtask
##statemachin
##sten
##ster
##sx
##tem
##tend
##threshold
##throttl
##typeinfer
##uch
##uel
##uid
##upgrad
##userident
##vertex
##wiki
##wir
##written
##xx
##yexpress
##yfunct
##ym
##ython
##zoneclust
abstractcsqueu
accent
actionrequest
aether
allof
ancient
annotatedconnectexcept
are
ari
arraybuild
arrayref
assertnotnul
atabl
atomiclong
aui
autodetect
axe
batchwrit
bcsid
beforeclass
beginn
bellow
bionic
bookstor
breakdown
browsestart
btw
bufferalloc
cachefactori
changep
checkmateri
classnod
clienthistori
clusterid
codepoint
complextyp
computeifabs
conclud
containerstatemachin
convolut
cope
crc
cryptograph
cryptographi
cse
cypress
databasenam
datainputoper
dcheck
ddr
debat
decent
deltastream
dispatcherservlet
displayresult
divers
doget
doubletyp
dpkg
droppartit
dtd
dttm
eager
equaltoexpress
executionplan
exempt
extensionarray
felog
ffffce
flowfilerepositori
fluo
fmtflag
forcibl
fruit
getid
getinputstream
getinst
gflag
graphql
gridwork
groovysh
gwt
gziphandl
hardli
harmless
harmon
hear
hepprogram
hepprogrambuild
hotfix
hup
ienumer
iff
inabl
inbound
instancenam
internod
intersphinx
iostream
isin
isinrowkeyord
jcenter
jimczi
johnzon
jsonobject
jsonpath
jsontreeread
julia
keyvalu
kibana
kindli
kubectl
lafuent
lb
libdir
libzstd
linestr
lmtp
logicalsort
lookuprecord
lst
mandat
manylinux
messageidt
micromet
mishandl
mistaken
mixtur
mllib
morecaus
mua
mymethod
nat
newinst
noisi
nolink
objectmapp
ofstream
onschedul
oop
pacemak
peter
phpstorm
pipelineexecutionexcept
pix
pkg
plasmacli
plaza
plumb
portablerunn
portrang
preliminari
prometheusreportingtask
psupervisor
puls
qtest
quantifi
quorumcnxmanag
raftclientrequest
raftserv
rapidjson
rapidli
rational
readfunc
readonlypag
rearrang
reclaim
recomput
reconfig
recordwrit
reldatatypefactori
relfieldtrimm
repartit
resort
rhel
richard
riski
rowtyp
rt
runasync
sam
sb
scanopt
searchrow
searchstr
ser
servicehandl
sideinput
simpledateformat
singa
slurp
sofa
sonarcloud
sortabl
sorter
spanish
spannerio
sparklyr
splittableuniformrandomprovid
spool
spreadsheet
sshj
staticfil
storageclass
successor
suppresswarn
syntaxwarn
tableapi
tasksetmanag
tezchild
thru
timeallow
tlscredentialsopt
tokio
totalcount
trafficserv
transmut
treerang
trycatchon
typedproperti
unam
unclos
uncommon
unencrypt
unicast
unif
uniti
unmodifi
unsecur
updatetim
upfront
upto
valuecount
valueprovid
vdf
viewport
waitingtoemit
walog
webadmin
webspher
weekday
writedatafilejob
yahoo
##ableentri
##ablewrit
##accessexcept
##acknowledg
##ah
##allsnapshot
##arili
##artit
##ateaddressrespons
##atort
##autocommit
##awl
##bbit
##beat
##boolean
##br
##calcrel
##card
##cationexcept
##ceed
##cert
##child
##clientauth
##clientimpl
##connectionmanag
##contextimpl
##controllerservic
##creat
##daemon
##datafram
##delay
##did
##dofn
##ebodi
##ecallback
##ech
##echar
##echecksum
##eclaim
##edatatyp
##edblock
##ednod
##ee
##eenviron
##eexampl
##ejson
##ekeypairrespons
##elin
##emapp
##embl
##emessagerespons
##emo
##encryptor
##eo
##eport
##eprofil
##eprojector
##equeuerespons
##erchang
##erclass
##erimagerespons
##ernod
##erread
##errel
##erset
##erutil
##esecuritygroupingress
##esecuritygroupingressrespons
##esecuritygrouprespons
##eserializ
##esnapshotrespons
##esus
##ethod
##euri
##fa
##fl
##freq
##gc
##git
##grant
##groupprovid
##hashaggreg
##hes
##hip
##ich
##ici
##imeout
##inc
##ingpolici
##into
##ionkey
##ionproperti
##kb
##kill
##leadership
##leaf
##lfield
##librari
##lick
##lik
##linux
##lli
##lti
##lu
##lud
##lv
##memoryexcept
##menu
##mun
##ndi
##notfounderror
##oid
##oin
##ompil
##ompos
##one
##ontrol
##orag
##ospac
##overag
##pagestor
##panel
##pip
##ppli
##productrespons
##productresult
##qa
##qualifi
##queueattribut
##queueattributesrespons
##quid
##quot
##refix
##regionconfigurationschema
##relationid
##relnod
##rogram
##rovid
##ryservic
##sasync
##scollector
##sect
##serror
##sfoo
##sheet
##smet
##srul
##stop
##strap
##syslog
##tablestorag
##tcha
##temp
##tick
##tit
##tur
##turn
##tz
##ua
##uat
##uck
##ucket
##uctur
##uin
##ultipartupload
##upport
##ute
##uuid
##uzzl
##visibilitytimeout
##visibilitytimeoutrespons
##volumerespons
##wid
##win
##wind
##withindex
##world
##wx
##xt
##ycollect
##ycolumn
##ycount
##ydataset
##ydefault
##ydoc
##ypid
##ypidrespons
##ypidresult
##yref
##yresult
##yrul
##ystream
##yu
##yvers
##yview
accumuloconfigur
activec
afaik
aggregatefunct
albeit
alldatatypetest
amo
analysisenginedescript
analyst
arab
arrowstreamread
asciidoc
atm
band
baselinenod
basicdatasourc
beanutil
benchmarkgroupbi
bet
blockmanag
boo
bottl
brandon
cachestor
callstack
carbonfil
catalogt
caveat
ccfg
cdef
chaz
checkindex
chunksiz
clientmod
clientport
cmid
combineperkey
complaint
componentnam
configpath
configurationregistri
consistentid
consumemqtt
coveral
createdatastor
crop
cryptic
csi
csrf
currentst
curv
customfieldvalu
datat
dcdcaa
declin
dedup
defaultendpoint
der
deviceid
disc
disclosur
disjunct
distributedprunerdd
dockerimagenam
dofilt
doputiter
dose
downtim
doxia
dynamodb
emitt
endpointdetail
enumerableaggreg
esp
facad
fastavro
fieldref
filemetadata
fileoutputstream
filetyp
filewrit
finishbundl
fixvers
flamegraph
fluent
fyi
generatefutur
getmethod
getshortusernam
getusernam
gist
globalindexcheck
gml
golang
grepl
gulp
handleabl
heard
hierarch
historyserv
hospit
httpf
httprequest
httprespons
httpservletrequest
hugo
ifdef
immutablebitset
incas
indexoutofboundsexcept
instabl
instantli
internaldistributedmemb
internalrow
interpol
intervent
invokescriptedprocessor
ipsum
ix
javacc
jobmodel
joda
jsessionid
jta
junk
kafkaspoutconfig
keyserv
kinda
kw
kylin
lab
lau
leakag
legit
lengthi
lesser
libc
linkedhashset
loadgen
logfeed
logservic
lookupauthconfig
majc
mapchildren
mapgroup
maptyp
mdcawarethreadpoolexecutor
menuitem
midnight
mile
mimic
misunderstand
mnet
modulenotfounderror
msec
muc
mvc
mvp
nbm
netstat
noauth
nowaday
nthread
objenesi
onboard
onfailur
onstop
onsuccess
openldap
outofmemori
overli
overlook
oversight
ozoneperf
pessimist
pki
preparestartcach
processingschedul
publishkafka
pubsubio
quarter
queryplan
randomaccessfil
randomsourc
ray
readerindex
readfil
recordfield
redshift
reef
refcount
rejectedexecutionexcept
replicationgroupid
reprocess
requist
resourceprovid
restlet
rock
rootalloc
runcommand
screw
scriptid
scrubber
serdeproperti
sighup
simplestr
singular
slnc
smartsens
spirit
sr
sstream
stackdriv
statsampl
stdcxx
storageengin
subplugin
subsect
summat
syscal
syslog
tableprovid
tableschema
takebetween
taxi
tblname
tear
terraform
testpipelin
theta
thorough
thumb
ti
tidyselect
timestampdiff
timestampedvalueinmultiplewindow
tkey
topn
topus
toset
tpcd
transformup
txstate
ual
udftolong
unalign
unaryservercallhandl
uncaughtexceptionhandl
unpackcont
unqualifi
unrol
untest
untrust
van
visitent
wednesday
wet
windowedvalu
worthwhil
writedatafiletask
writelock
writetim
wst
xmlconfig
xsendfil
yyyi
##ablesink
##abletablesourc
##aggfunct
##aid
##alcatalog
##alect
##alizersnapshot
##all
##alsvisitor
##alvalu
##appmast
##arrow
##ason
##assembl
##aterecord
##ationimpl
##avail
##aw
##az
##befor
##bert
##bigqueri
##break
##brok
##ccumul
##committ
##configurationfactori
##ddi
##de
##defaultschemanam
##delegationtoken
##dequ
##dialect
##diff
##dit
##dn
##dst
##eaggregatefunct
##ealthcheck
##eapi
##earch
##ebas
##eceiv
##echannel
##ecl
##ector
##edatastream
##edcolumn
##edconfigur
##edoc
##edoutputstream
##edpartit
##edresourc
##eds
##edset
##edtransport
##eexpress
##ega
##egi
##egistri
##ehtml
##ehttpcli
##ehttprespons
##emain
##ematch
##ementservic
##enano
##endtim
##enotfoundexcept
##epattern
##equir
##eradapt
##erdata
##ereport
##eresolv
##ergroup
##erifi
##erinst
##erit
##eroper
##erserv
##erwrit
##estart
##etestbas
##etext
##evis
##exit
##ez
##fer
##fetch
##fileappend
##filerepositori
##filterfactori
##gmt
##highlight
##histori
##hit
##hostid
##hr
##icationexcept
##icationtoken
##icid
##ientif
##ij
##ile
##ima
##imarykey
##implement
##ionalgorithm
##ionchang
##iond
##iondunittest
##ionlist
##ionpool
##ionregistri
##ionset
##ionsrul
##iont
##iot
##irect
##jo
##kim
##kip
##kt
##land
##lann
##lassload
##lay
##lect
##left
##lnam
##lob
##loop
##mbl
##mentmanag
##mock
##mov
##nerio
##nmatch
##notebookrepo
##nput
##nu
##ojo
##old
##olog
##ompar
##ontext
##ook
##opi
##orrow
##pand
##parametercontext
##patch
##plic
##pom
##poweroftwo
##prefer
##pressor
##progress
##quota
##rain
##ral
##rangequeri
##reat
##restrict
##ric
##roduct
##roto
##ryprocessor
##rys
##sact
##sclient
##sconfig
##ser
##sia
##similar
##sin
##slotacc
##spector
##spout
##sqlpars
##srecord
##sresult
##standard
##stock
##subscrib
##synchron
##tail
##tax
##testcas
##texcept
##ttr
##txn
##tyexcept
##tyid
##uit
##uprul
##urg
##ursor
##user
##ush
##ussian
##utdown
##uti
##utur
##valuepair
##varchar
##vas
##ven
##verifi
##wc
##writer
##xecut
##yaddress
##ycl
##ydescriptor
##yexecutor
##yfield
##yn
##ync
##ypars
##ypool
##yproject
##yresourc
##ystr
##yto
##zo
aba
activationconfigproperti
acut
addal
affix
alic
alltypessmal
alphanumer
amet
ampersand
amqpmessag
anewarray
angola
ansibl
antijoin
arguabl
arraybuff
artifici
assur
asyncdispatch
ate
authoriz
authorizercr
autobrew
avroschema
bail
bal
beforeinvok
bf
boil
brittl
budget
buildertyp
buster
bytearrayinputstream
cabal
callid
cannotplanexcept
cartridg
categoryid
cgroup
chill
circumv
clientcach
clientop
closest
cloze
clusterstatu
cognit
combinefn
commitiswait
configurationexcept
configurationmanag
connectionmanag
conscrypt
contigu
coprocessor
coursecontact
currentkey
cyclicbarri
dart
databind
datacontext
datainputstream
datastreamrepli
dataxceiv
datediff
datetimeformatt
dbcp
desthost
detector
dirmngr
distributedconfigurationstorag
dnf
dosometh
dostart
down
dowrit
durationinmonth
ear
ef
elasticsearchio
emoticon
empnul
encompass
erik
expon
externalproject
extractoutput
failurehandl
filefrag
fileid
finalis
finit
flightstream
foldleft
forest
freshli
frontpag
geotiff
getdeclaredfield
getfoo
getpar
gettabl
gettingstart
gettwitt
geturl
goaway
googletest
grantor
grew
gridqueryprocessor
grp
hamcrest
hastask
hiveserv
hmshandler
hoodietablemetacli
horribl
hue
ibinarytypedescriptor
iep
igniteclust
ill
imapuidt
imapx
indi
inheritpath
instancedir
instanceid
intellig
invocationtargetexcept
ipcread
ital
janhoy
jce
jgit
jsr
kankao
kera
kex
knew
kuromoji
kwd
lastrequest
latin
launchserv
ldd
lean
lgpl
lgtm
limin
linkedin
listentcp
localbufferpool
localclust
localfilesystem
lorem
manufactur
market
matchalldocsqueri
maxsiz
memcach
memcheck
memcpi
memset
mex
minikub
mink
modelvers
moot
motd
movi
nameandvalu
needlessli
neglect
newlead
newparam
nimbusinfo
noarch
noclassdeffounderror
noconfig
nodeinfo
notifyal
nowher
nul
numa
numfil
olmi
oneway
orang
outputdirectori
paid
paneinfo
paragraphid
parquetwrit
partitionreplicalisten
pcap
pcounter
penal
plagiar
pluginmanag
poisson
pour
precheckin
precomput
prestodb
printout
privatekey
programproduct
progressbar
projectjointransposerul
proxyus
putifabs
pzxid
quantiz
quarku
radiu
raftgroupserviceimpl
randomclass
rangerba
readablewritablecatalog
realloc
reciev
recordsinkservic
redeclar
regionbrok
regionpath
reintroduc
resp
resultpartitionwrit
rise
robin
routebuild
rpcendpoint
rpg
rval
saturday
scaveng
sde
searchabl
sendmessag
serverconnector
servicecontext
servicestop
shallow
shellbolt
shellcheck
sigint
sister
sketch
sla
slade
slowest
smth
sonarqub
sparkr
spdi
splittabl
splunk
sqltorelconvert
srcdir
startoffset
statebackend
statefun
staticloggerbind
station
statusmessag
stretch
stringifi
stringutil
stylelint
subnav
superus
supposedli
surprisingli
switcher
tablesourcescan
tableview
tamaya
tdml
techproduct
teragen
thead
thriftclienthandl
timeit
tmv
tokenstream
topo
tpch
troublesom
trycatch
tsourc
typeseri
ucx
udtf
un
unaccount
unintend
uniqid
unmanag
unshar
uptim
userinfo
uuidtyp
vararg
varcharvector
varlen
warm
webdriv
wether
wildfli
wit
withcallinghandl
wraptoken
writerequest
xa
xmlreader
xslt
xuser
yarnresourcemanag
##abyt
##aftgroup
##agon
##ahead
##alnod
##alrefer
##alservic
##alunion
##amp
##ana
##ansf
##apitest
##arch
##atebackend
##ationerror
##ationinfo
##ationissu
##ationsourc
##ationtyp
##ationvisitor
##attemptid
##attr
##aunch
##azureblobstorag
##azuredatalakestorag
##bat
##behavior
##biqu
##bodi
##bot
##brows
##buffers
##byguic
##byid
##ca
##call
##cessari
##cf
##challeng
##clientinterceptor
##clusterentrypoint
##cm
##compressor
##continu
##cours
##ction
##ctor
##cul
##cur
##datarow
##default
##demand
##depend
##destroy
##dom
##dor
##eanalyz
##eav
##ecallcontext
##eclust
##eda
##edatastor
##edecod
##edefault
##edestin
##edg
##edisplay
##edobject
##edst
##edus
##edvers
##efilesystem
##eflag
##efunctionscan
##egist
##egrationtest
##einputg
##eint
##eintern
##ejava
##elli
##emonitor
##emp
##emysql
##entfactori
##entmap
##epar
##epipelineopt
##ercach
##erchain
##erinfo
##eritcas
##ermessag
##erow
##erproperti
##erproxi
##ersect
##erti
##eryexecutor
##escann
##esecur
##espons
##essourc
##estin
##estop
##etadata
##etail
##ett
##eunion
##euuid
##ewindow
##ewrapp
##exchangehandl
##ezon
##failedexcept
##ffect
##ffer
##fieldvalu
##fin
##fromlead
##ftp
##fullscreen
##fun
##gest
##gh
##gre
##groupservic
##han
##hashcod
##hreadpoolexecutor
##hunk
##ibut
##icens
##icgroup
##ictest
##ie
##igest
##igrationtest
##ild
##iment
##indexconfigurationschema
##ingtopolog
##ingutil
##inputprocessor
##ioerror
##ioncompon
##ionconfigur
##ioncontrol
##ionschem
##ionvisitor
##ior
##ipelin
##ipl
##iro
##itt
##itut
##itycontext
##ityschedul
##ium
##larg
##lex
##lict
##lient
##lif
##locationprotocolservic
##loginmodul
##lugin
##machin
##mentexcept
##mergepolici
##messages
##methodauthor
##methoderror
##methodexcept
##mo
##modifiedtim
##mx
##nameprefix
##nel
##nequ
##ner
##nitr
##notic
##notif
##objectinspector
##obyt
##offic
##oke
##okenstateservic
##ollow
##oma
##onc
##ora
##ore
##org
##ositori
##oss
##oth
##ours
##oy
##pedia
##period
##phras
##plain
##pluginfactori
##pn
##pret
##processsess
##promis
##ptim
##qcn
##qn
##quir
##rac
##rand
##ras
##rategi
##removerul
##ren
##resp
##rid
##rim
##rix
##roxi
##ruct
##rydataset
##ryid
##rystorageengineconfigurationschema
##sclos
##scode
##sconnect
##scorequeri
##scp
##scredentialsservic
##secret
##sfilt
##sformat
##sname
##snul
##sprocessor
##ssa
##stag
##storagemanag
##stringbuild
##svn
##tab
##tcp
##transportfactori
##tructur
##trycount
##typenam
##ubqueri
##uncommittedoffset
##ung
##userid
##utputstream
##vert
##vit
##vl
##void
##weep
##wi
##ww
##xchang
##xecutor
##yblock
##ybrid
##ybyt
##yfutur
##yhook
##ylin
##ypermiss
##ypt
##ystor
##ystorageengineconfigurationschema
##yword
abstractunsaf
addacl
additionalinfo
adress
afraid
airflow
alarm
altrep
anaconda
antisami
ao
appinfo
arrowinvalid
arrownotimplementederror
artefact
artifactori
assertev
astr
asyncwaitoper
authz
autodocu
ballot
bat
bcc
bcel
beanpostprocessor
bear
beforeandafteral
bitvector
bitwis
blt
breaker
brokerurl
buff
burn
burst
bw
bytebuf
bytescod
cacherev
canonic
capacityschedulerconfigur
carbondecoderrel
catalyst
cay
centr
checknotnul
checkscalarunari
cherri
chmod
clientsessionimpl
cloudsolrcli
clusterconfig
cmp
codestyl
companion
connectionhandl
constantexpress
container
contenttyp
cpplint
crd
createnod
csp
csvparser
csvprinter
cte
currentmodul
customiz
cyclic
datapoint
dealt
degener
delphi
destpath
destport
dfsclient
dictionaryencod
discover
discoveryspi
diskstor
dismax
dnsjava
docal
docset
doctag
dog
dotrycatch
drupal
dsrmanag
dwpt
ed
eleg
enumnam
eofexcept
equalto
eventtim
exc
exitcod
exparr
expiryqueu
failjobandindependentstag
fetcher
fhandler
fifo
filepattern
filterjoinrul
finest
fip
fixedsizelist
fixtur
flakey
flattenoper
flogger
funsuitelik
gamma
genericdata
geometr
getclass
getresourc
getstatist
gregorian
gssapi
handoff
hasdefault
hashicorp
heatmap
hexbinari
hiv
hivereloptmateri
hsql
httptransact
ibiblio
ignitecfg
inaccess
inch
indexread
indexsortsortednumericdocvaluesrangequeri
injector
inputstreamread
internaldistributedsystem
invokemethod
isser
issueid
jaeger
jaxr
jboss
jee
jpm
jtd
keyboardinterrupt
kinesisio
kirk
lay
ledger
lexic
lexorank
libarch
lifecyclebeanpostprocessor
listsnapshot
lmi
logappend
logarithm
london
longvalu
lshistori
magnitud
manu
mapstat
mapwork
matchindex
matt
mavenproject
maxshardspernod
maxuncommittedoffset
messagekey
metacach
metricgroup
microbenchmark
microphon
microservicevers
misinterpret
mmapdirectori
modulenam
morn
movetask
mqttmessag
mtime
multichoic
multilin
nevertheless
newval
nh
nori
nosuchelementexcept
nr
nullarray
nvcc
nvl
obfusc
omaudit
omegacallback
onev
opcod
openapi
openjpa
openkeyt
outputrefer
outstream
overkil
overwhelm
parametr
parquetio
passphras
passthrough
pathchildrencach
pdftoppm
percol
permalink
plist
plot
pp
ppa
preempt
prep
printvalu
printwrit
processexcept
productcategori
productd
projectnam
projectnod
prot
proton
puthdf
qname
qo
qt
queryabl
queryparam
queryrecord
queuesiz
quicknav
quietli
rangerrol
reaction
readtimestamp
receivedjmstextmessag
recognit
recordrtc
recordview
rectangl
redhat
refguid
reg
relativepath
relbuilderfactori
reljson
replicaservic
replicationmanag
resubmit
retyr
rexinputref
rgb
rmiserv
road
roleid
rowcod
runbatch
runtestsinbranch
sax
sbr
scanqueri
scari
schemanam
securityexcept
serviceinfo
seven
shortfield
sig
singleword
slim
slowconsumertest
snowbal
snowflak
sock
sourcet
speci
splash
sqldialect
sqlfunction
sqrt
standalonesess
startindex
startswith
stdlib
streamexecut
streamsiz
stringvalu
submitjob
superengin
supergroup
suscept
swipe
synch
tableconfig
tablerow
tablestatu
tailor
taint
taskboard
tbodi
teh
telegram
ternari
threat
tieredmergepolici
timeuuid
toc
tolowercas
tracebackentri
trainer
trysearchmod
tube
txmeta
unbuff
unimpl
unseen
unshad
untrack
unusedimport
upward
userlist
vagrant
vectorizedrowbatch
vial
visiblefortest
voter
vpc
waitfor
walpoint
warrant
webappcontext
webhom
webxml
workerreceiv
xhr
xid
zh
zkclient
zoneddatetim
zulu
