[PAD]
[UNK]
K
N
U
[
]
a
b
c
d
e
f
g
h
i
j
k
l
m
n
o
p
q
r
s
t
u
v
w
x
y
z
java
org
apache
tat
code
file
com
method
class
line
internal
test
run
util
##s
modules
netbeans
https
jar
error
core
arrow
beam
ignite
server
hadoop
frame
lib
thread
lang
info
data
new
name
table
xe
user
junit
client
hive
api
use
io
github
param
type
build
version
add
src
flink
runners
invoke
cache
main
string
null
value
get
tests
create
message
id
time
hints
concurrent
home
using
python
default
exec
noformat
nthe
reflect
log
sql
http
sun
files
set
php
call
snapshot
would
base
impl
true
one
support
scala
nifi
py
cassandra
nat
issue
following
service
need
exception
common
like
key
text
source
node
worker
spark
failed
maven
see
also
execute
users
page
list
used
jetty
read
int
moodle
query
geode
nthis
task
local
processors
threadpoolexecutor
trying
usr
date
currently
color
openide
eclipse
current
plugin
pyarrow
solr
object
runtime
example
could
##ing
start
system
case
security
check
process
release
calcite
html
google
false
atlassian
path
##d
ambari
update
project
return
field
make
work
jira
size
ui
javax
index
column
found
select
configuration
netbeansdir
result
include
schema
artemis
level
group
access
state
change
blob
ni
dofilter
filter
web
storm
course
##ed
gradle
job
cpp
master
issues
site
function
write
classes
parentrunner
std
bin
fix
request
may
instead
native
record
output
##test
first
array
nativemethodaccessorimpl
activemq
go
order
ql
netty
net
cluster
expected
jdk
command
##exception
values
hdfs
view
running
cc
servlet
spi
sdk
dataflow
parquet
rule
delegatingmethodaccessorimpl
number
remove
handle
created
xml
config
execution
docs
model
dev
problem
##impl
module
testing
db
directory
protocol
target
parsing
status
applicationfilterchain
added
commons
init
debug
##e
information
way
connection
admin
library
memory
swing
awt
changes
zookeeper
content
handler
##r
dependency
since
ci
url
action
context
##id
lucene
nin
springframework
component
engine
event
pattern
root
jenkins
long
format
jdbc
upgrade
without
already
char
lambda
json
fails
implicit
png
nwe
two
load
implementation
apply
fail
package
failure
metrics
packages
##er
nio
input
warning
requisition
cli
program
self
end
##t
different
results
processor
options
tmp
errors
##a
option
sequence
plaf
public
final
possible
due
instance
install
non
available
map
catalina
property
properties
pull
able
thrift
##manager
grpc
open
njava
runner
find
spiimpl
still
link
session
pipeline
groovy
accumulo
search
utils
editor
part
count
based
evaluate
tasks
camel
stream
nit
try
nhttps
##ly
##type
assert
ninfo
allow
management
types
commit
millis
right
row
nh
latest
seems
required
distributed
please
static
metadata
must
container
database
hintsinvoker
components
dataset
delete
image
makefile
##c
testrunner
empty
want
##n
ncaused
fields
##factory
mdl
via
unknown
report
resource
sling
host
even
sdks
basic
uses
block
ozone
##y
display
timestamp
partition
lookup
click
multiple
done
address
reproduce
dir
compute
however
prerequisite
driver
##utils
operation
dependencies
fs
##name
nerror
stem
single
versions
repository
double
next
platform
transport
services
xb
na
indexing
last
bug
future
void
js
enabled
steps
const
norg
existing
tools
##l
storage
vm
remote
cause
streaming
us
store
var
show
missing
timeout
application
plugins
messages
port
max
binary
##b
implement
reference
framework
cases
executor
integration
none
futuretask
yarn
needs
button
kafka
integer
browse
feature
mode
step
codehaus
carbondata
custom
www
logging
ratis
channel
think
df
contains
persistence
parameter
bundle
provide
back
resources
methods
started
compile
app
nif
columns
template
generated
queue
##handler
removed
well
builds
note
documentation
quote
environment
setting
opt
docker
logs
always
shared
related
openlmis
spring
entry
external
mqtt
mod
##p
enable
put
import
close
nodes
##f
cloud
col
might
pr
adding
performance
dispatch
localhost
tree
provider
etc
collection
another
operations
##m
updated
windows
##o
stack
transaction
objects
git
creating
left
send
description
plan
servlethandler
response
processing
proxy
returns
ssl
bytes
know
parse
script
many
sh
per
##context
full
help
activity
question
behavior
optional
length
setup
tez
save
functions
sure
ms
coloruiresource
settings
better
rest
conf
interface
vector
nfor
caused
##able
join
jvm
batch
cmake
buffer
called
unit
invalid
csv
branch
password
edit
catalog
given
manager
bit
deprecated
##x
agent
operator
actual
old
##client
changed
##i
side
eb
simple
auth
ref
top
fixed
within
complete
works
sort
reason
comment
similar
lock
rel
random
ticket
frameworkmethod
linux
##info
tables
completablefuture
correct
pa
olmis
rules
projects
ba
examples
compiler
desktop
pool
throws
section
login
working
tool
details
executors
header
warn
supported
nimport
something
point
stop
min
rows
filesystem
got
exists
zeppelin
specific
##builder
runworker
document
wait
wrong
names
needed
anonfun
form
##filter
match
take
nwhen
large
coder
insert
flight
##v
boolean
parent
exist
item
every
launcher
standard
ec
nullpointerexception
location
control
configured
parser
shaded
surefire
taskprocessor
builder
pandas
##file
move
copy
tag
arm
workspace
total
tab
token
fisheye
decimal
big
utf
guide
accept
defined
limit
filters
seconds
failures
private
ldap
expression
fn
opensslcryptorandomnative
parameters
actually
criteria
logic
##util
statements
##g
orc
require
either
md
amd
hbase
cast
trace
region
endpoint
starting
avoid
nto
element
##h
reader
threads
window
second
##es
print
xd
active
attached
controller
patch
topology
displayed
skipped
times
looks
calls
copying
metastore
recent
review
longer
clean
queries
ep
fe
makes
##table
pom
causes
env
happens
cd
stored
avro
connect
transform
en
returned
failing
good
override
requests
screen
throw
registry
macosx
commands
byte
look
classloader
quiz
usage
intel
requestprocessor
##cache
space
##reader
pm
flow
events
##service
consider
objectinputstream
txt
abstractchannelhandlercontext
validate
implemented
jobs
never
##message
means
err
category
least
repo
##map
##writer
envs
verify
ipc
runs
convert
range
replace
heap
variable
aws
cve
finished
role
##task
##provider
pass
travis
condition
prefix
ok
post
provided
##query
groups
correctly
rdd
additional
specified
waiting
scan
useful
valid
let
factory
rpc
nand
authentication
iterator
##processor
classrunner
##k
fa
lines
broker
previous
tcp
doc
probably
generate
actions
acceptance
ee
incubator
whether
attribute
points
nselect
##list
getting
##data
appears
##value
introduced
building
present
several
separate
lot
blockjunit
auto
records
success
solution
foo
##it
bf
checks
original
facility
nas
subversion
configure
ioexception
keys
disabled
looking
requires
ensure
profile
reading
cmd
jackson
pages
loading
scheduler
##time
thrown
aa
items
nso
nno
around
title
properly
args
download
nb
closed
submit
shows
contain
attempt
drop
deleted
made
email
passed
bigint
completed
##node
exceptions
behat
##config
console
extensions
akka
problems
scripts
constructor
leader
follow
forum
writer
extension
functionality
included
##al
##request
shown
validation
selected
dist
encoding
backup
libraries
caches
much
##path
discussion
nimbus
else
directly
unable
slf
unique
ca
includes
slave
npublic
spec
products
bigtop
locale
merge
creation
crypto
stock
student
##et
grade
computehints
stats
network
stage
sync
nthere
repeater
ff
lists
os
allows
minifi
sum
##u
protobuf
body
modify
fd
gateway
dtest
jersey
screenshot
product
ptr
though
val
##error
language
##key
graph
nbut
xwiki
de
ncreate
split
str
keep
deleting
nhowever
velocity
writing
improve
##w
javadoc
vendor
interpreter
yet
happen
dictionary
disk
rather
catch
jsp
ce
direct
sub
libarrow
mail
strategy
thumbnail
lookups
elements
inside
mortbay
dc
gets
socket
statement
nsee
subject
skip
hop
argument
jrt
width
ad
elapsed
incorrect
num
providers
completion
global
clients
offset
conda
gridfutureadapter
mb
shell
temp
##ion
scope
##configuration
distribution
##base
eventdispatchthread
noticed
scopedhandler
flags
resolve
runnableadapter
schedule
general
gnu
menu
later
wal
wire
confluence
hdp
policy
consumer
ea
upgrading
flag
bucket
suite
entries
##ervice
knox
checking
namenode
hierarchical
links
##action
compaction
daemon
necessary
##command
cb
conversion
watchdog
license
supports
internaldofilter
opensymphony
export
really
summary
nodetesttask
performed
prepare
reduce
rs
hash
bad
unitcompiler
assertionerror
retry
built
af
disable
fb
ne
icon
primary
scenario
extra
features
clause
ac
layout
sent
warnings
##q
received
exit
scm
eventqueue
boost
filesystems
small
om
svnclientfactory
phoenix
assignment
invokemethod
locks
member
behaviour
written
##ation
generic
bootstrap
connector
installed
miniconda
runtimeexception
bar
broken
ch
aop
hdds
async
automatically
aggregate
meta
assertion
dispatcher
statistics
releases
struct
ctype
float
newinstance
replication
uri
##executor
##function
folder
receive
segment
reported
namespace
nested
partitions
##index
##z
goal
darrow
trunk
username
carbon
instances
##helper
bottom
child
classpath
place
proto
cf
navigation
specify
fine
##server
scheduledthreadpoolexecutor
tid
##ize
##j
allowed
unsigned
quantity
locator
render
strings
calling
easy
reflectivecallable
switch
forkedbooter
planner
svn
venv
deploy
making
successfully
ed
refer
collections
##iterator
ip
nalso
##object
rust
cpu
cxx
initial
blocks
##parser
beans
nexpected
nfrom
including
notification
maybe
timer
artifact
da
tried
dd
less
proxylookup
##listener
clear
cru
ef
enough
period
nice
takes
bd
transforms
xef
calendar
discovery
illegalstateexception
##field
diff
params
hidden
apis
updates
ab
hudi
ranger
expect
detail
hard
tomcat
requested
restart
topic
##on
label
managers
thus
tries
##tate
mapping
arrays
javascript
nnote
detected
sshd
things
historydata
uid
upload
assign
postcommit
##class
applied
azure
browser
creates
openjdk
pre
elasticsearch
share
approach
named
design
msg
##queue
executed
executing
going
handling
##in
collect
manage
unfinished
bamboo
bc
questions
zero
##options
##or
restore
##version
appear
editable
gcp
perform
##connection
annotation
expressions
loaded
arraylist
history
occurs
background
courses
fab
lifecycle
resolved
bb
lead
ability
account
benchmark
ts
ubuntu
bind
definition
startup
actionevent
append
propose
def
term
attributes
corresponding
border
compatibility
define
glib
grpclogappender
comments
libs
stdcxx
teacher
undefined
break
james
loop
checkpoint
contribute
xbb
crossbow
checked
crucible
kairosdb
released
inputs
logtransaction
##runner
reports
alter
arguments
enter
loadclass
shutdown
jupiter
visible
zip
filterchainproxy
reset
sometimes
style
cleanup
dynamic
sink
serialization
##result
alpha
permission
executewith
suggest
ids
st
permissions
moved
requisitions
extends
avoiding
microsoft
optimized
cenqua
kit
compression
rename
manually
sqlvalidatorimpl
character
cust
codec
reporting
wiki
##group
defaultactioninvocation
gridiomanager
pending
phpunit
##count
modal
rt
seen
ae
logged
repair
loader
duplicate
entity
notice
expr
reflectiondispatch
matching
progress
metric
operators
eval
oracle
rmi
npe
##operation
certain
recursion
##adapter
demo
fc
mysql
##record
communication
particular
sebor
unexpected
xwork
##event
##io
initialize
op
position
##en
introduce
raise
structure
##buffer
implementations
rw
intrinsicmaptaskexecutorfactory
likely
connections
proceed
tostring
ds
illegalargumentexception
pipelines
allocator
ant
artifacts
sample
occurred
nafter
##lib
analysis
development
gridcacheiomanager
bigquery
curator
dht
usergroupinformation
administration
anonymous
fetch
multi
ignore
precommit
##metadata
##method
rcs
repackaged
closure
intellij
margin
xbc
easier
tags
high
kerberos
livy
##thread
physical
datanode
##internal
flush
janino
theme
accesscontroller
amazonaws
changing
varchar
ccm
guava
modified
visit
equal
gridworker
idea
equals
runchild
simpledofnrunner
causing
modifiers
len
jmx
notes
webapp
according
addition
height
interval
fileobject
logical
seem
slow
simply
chain
dashboard
nc
raft
therefore
##ting
recently
serversessionimpl
uuid
cmakefiles
fact
nioeventloop
txn
regression
##rule
paths
nclass
rc
logger
mapreduce
submission
attempts
bplustree
deptno
doprivileged
gcc
give
httpservlet
workaround
cs
dump
doas
explicitly
groupid
norm
amount
inner
ns
stopped
nhere
provides
adds
developer
osgi
archive
bool
domain
otherwise
reportbuilder
ignored
seed
streamingdataflowworker
testcase
whole
box
documents
ninsert
normalization
sending
force
globallookup
headers
sense
short
##le
gz
nwith
plasma
sources
stable
iceberg
managed
syntax
debugging
ext
kind
places
trigger
explicit
migration
misc
taskrunner
testdriver
servletfiltermodulecontainerfilter
sha
templates
##loader
easily
follows
quite
manual
references
various
basictextui
cost
jars
real
##url
contexthandler
foreach
parallel
pkg
loaders
minor
across
actor
generatedmethodaccessor
insets
updatehandler
flowfile
sec
tar
zk
##array
hintstask
marked
##view
splitter
alignmentx
alignmenty
caretcolor
disabledtextcolor
maximumsize
minimumsize
monitor
preferredsize
relevant
selectedtextcolor
selectioncolor
typehandlers
prevent
consistent
minutes
variables
##ate
fixes
legacy
nameandoptionaluid
##properties
authorization
everything
staging
abstractpipeline
readme
alias
leads
##state
images
reasons
reflectivemethodinvocation
workflow
clusternode
nothing
##proxy
day
nhttp
removing
backend
iotdb
associated
descriptor
duration
ndo
proper
##mode
known
finish
free
##wrapper
containers
cover
deserialize
pardo
regular
saved
secure
website
abstractqueuedsynchronizer
dataframe
lost
updating
algorithm
boot
dylib
##format
basekit
grid
maximum
proposed
artifactid
closing
hibernate
ncurrently
servers
compatible
##dir
helpers
immediately
ones
requestperformer
##async
anything
appropriate
clojure
compare
scannerimpl
containing
starts
choose
handled
administrator
annotations
credentials
helper
urlclassloader
eg
major
runbefores
transactions
tuple
clientcallimpl
continue
extend
machine
##converter
##ic
##store
depends
postgresql
div
hostname
nar
ndebug
refresh
lower
dunit
say
gc
super
urn
##row
gettesttargets
jms
processed
nan
important
pcollection
reviewed
scale
scheduled
##entry
audit
mvn
previously
thirdparty
localcache
mqttfailurelistener
mqttsession
samza
standalone
reads
##log
amqp
checkstyle
ops
replaced
##est
##size
gandiva
solrj
##te
characters
complex
ws
##files
determine
editing
nexception
hold
mechanism
nwarning
underlying
##tore
assigned
normal
raw
streamtask
##op
basicborders
best
described
javakit
marginborder
tbl
forward
special
webwork
##nt
hashmap
indexes
interceptor
randomizedtesting
bits
configurations
resulting
unnecessary
unsafe
bundles
capability
contents
three
track
##code
clj
##ity
##up
deployment
pid
distinct
installation
intercept
leak
scalar
views
libsvn
repos
scalatest
tls
cron
##stream
css
ntest
sites
tested
year
##ive
assertequals
catalyst
people
adapter
dml
invocation
processelement
asf
passing
word
datetime
focus
##response
roles
##line
javac
quieteditorpane
refactor
versioningannotationprovider
yaml
##set
head
nativeconstructoraccessorimpl
##ies
dummy
nsteps
defaults
##ment
harness
networks
##to
believe
directories
wrap
develop
edu
glassfish
hand
anon
eatwhatyoukill
cfg
customer
especially
filename
numpy
register
submitted
##check
ctrl
edge
hosts
intermediate
nullable
##operator
clicking
felix
println
situation
sys
taskmanager
temporary
##dunittest
bugs
advanced
locally
locked
nexample
often
rocksdb
timed
booter
converted
daffodil
dropdown
func
obj
repeat
##all
notebook
push
tablet
understand
feedback
##interceptor
##us
developers
nightly
emp
warehouse
forkjoinpool
oauth
encountered
generator
lz
navigate
panel
shiro
expose
matches
cached
improvement
pip
triggered
uniqdata
wrapper
configurable
ctx
detect
handlerwrapper
xx
##an
##expression
days
messaging
others
registered
ex
ideatestrunner
inline
jena
safe
callable
moment
pytest
union
##ent
gemfire
mark
mean
membership
principal
runafters
sets
##future
##input
traits
tserver
##erver
##pool
##registry
returning
mock
nplease
rpm
tx
compilation
datatype
offline
partitioned
rv
affected
qa
antoine
clidriver
except
junitstarter
menubar
thing
delta
launch
queuedthreadpool
generation
identifier
lti
pxi
requirements
sessionhandler
turn
dialog
inventory
community
fully
mimesupport
beta
hello
inject
live
##session
capacity
constant
fasterxml
mentioned
occur
ignitelogger
threshold
##inputstream
##ry
applications
cancel
embedded
ha
produce
databind
hi
notifications
pyx
##st
httpclient
perhaps
refactoring
timeline
##batch
iteratingfilterchain
carrotsearch
entire
pd
pk
says
##tream
callback
throwablecollector
xxx
##date
##db
devel
great
improvements
shade
structfield
timezone
versioning
gs
uploading
xbd
##generator
cran
ignitionex
jquery
tcptransport
##dispatcher
moving
phase
pointer
##ble
calculated
come
conditions
happening
hit
keystore
mbr
taken
tokens
##vector
ie
renderer
transfer
##page
coders
instructions
nthese
##se
considered
numbers
older
proposal
retrieve
successful
yes
critical
fatal
scenarios
utc
##outputstream
binding
exclude
expand
showing
trafficserver
unused
##api
avatica
clone
listener
ljava
locksupport
rf
runreflectivecall
team
##at
##descriptor
dates
dtests
nwhile
apachegeode
invokeexplosively
replica
##call
compose
counter
datamap
freemarker
numeric
repositories
td
##timeout
##visitor
alert
anymore
igniteutils
initialized
merged
optimize
##strategy
##tree
activities
bank
goes
pack
production
shard
slot
##plugin
bufferedinputstream
bulk
completely
helpful
month
scheduledfuturetask
segments
bindings
folders
junittestclassexecutor
listed
mailing
supply
xba
##lock
fast
mv
ready
referencepipeline
schemas
##classloader
declared
potential
bash
students
##tests
attempting
datasource
central
discussed
fill
indices
mojoexecutor
repositoryupdater
symbol
took
assembly
become
compiled
far
httpchannel
infra
nthen
tracker
along
effect
programs
recovery
resourcemanager
asm
impossible
regex
shift
software
trout
age
appliances
plexus
virtual
##channel
cwiki
filtering
implements
interactive
packaging
preconditions
##bytes
##ted
applicationdispatcher
caching
invoked
nfailed
priority
series
sqltorelconverter
gitrepo
gives
nsince
##ar
##user
area
individual
marshaller
planning
##metrics
chunk
crowd
gtest
observed
performing
vs
##el
decode
downstream
xbf
blocked
buffers
discovered
gen
kubernetes
naug
np
connected
coverage
exchange
increase
inf
jre
nline
revision
runrules
unless
alarms
gb
ide
##job
##region
clifrontend
orders
queues
##repository
comparison
portability
repl
branches
functional
illegal
tox
curl
little
payload
red
replicate
selection
third
upon
wchar
atomic
beeline
mailbox
sensitive
thriftserver
##driver
explain
extract
loginternal
prio
tubemq
versioncommand
##component
delayedclientcall
ntraceback
states
##source
##types
configs
confusing
defaultchannelpipeline
dostart
generating
hwx
illinois
jemalloc
pretty
rfc
swt
upgraded
enum
publish
utility
volume
##address
##values
although
depending
grep
purpose
thin
##consumer
##controller
##ts
griddhtpartitionsexchangefuture
initiate
macro
possibly
snappy
##number
folderinstance
kb
serialized
sleep
stacktrace
##resource
delegatingfilterproxy
initialization
metron
park
requirejs
shuffle
##model
appliedptransform
cxf
omitted
submarine
devco
sessions
traceback
chrome
delay
##join
##ter
##worker
comes
indicate
kryo
reactor
sparkexecutestatementoperation
bump
buttons
delegatingconstructoraccessorimpl
endpoints
exactly
executerecursively
jpg
ncc
opening
pdf
readobject
sorted
blue
encryption
opened
parts
party
twice
windowing
grading
kernel
llap
quick
streams
upper
##tring
begin
ddl
fun
handlers
hence
oak
##schema
affect
feather
moodles
mp
together
breaks
googletest
##ce
serialize
##ness
commits
cp
nbkeymap
race
wordcount
httpconnection
jcr
localregion
nactual
##ist
##project
blocking
pair
crash
gannet
plain
ripley
abc
clusters
dfs
writes
##end
##os
##reference
approved
atlas
gridabstracttest
lc
libc
models
peer
selector
##token
##tracker
answer
difficult
earlier
incorrectly
minimum
rebalance
sbin
##policy
conn
hook
impact
ncsa
processtestclass
systems
##ap
centos
defaultmaven
journal
kib
owner
past
##ized
##ure
desired
members
openssl
outside
specifically
##instance
##is
confirm
declaration
protected
redundant
treenode
##container
cachedchain
deprecation
dll
limited
ng
verification
vertex
##itcase
dplyr
faster
mobile
near
registration
unomi
##ns
cross
improved
mavencli
signature
xpn
##string
batches
clusterdistributionmanager
el
higher
hub
lots
nset
connectors
hasnext
##fields
##property
arr
assume
dag
desc
mnt
press
##logger
concourse
jobmanager
kernels
mt
privacy
snapshots
facilities
low
sparkplan
suites
urls
##as
##text
##tion
allocated
flatten
killed
onmessage
ssh
##ling
archery
blog
cdev
containerlifecycle
coordinator
frameworks
mac
negative
raftserverimpl
solve
terms
th
today
bean
dead
difference
finally
minimal
rate
##content
##support
couple
datafusion
inconsistent
nd
prior
redis
sp
taking
dotnet
jboss
newer
outputs
pypi
threadpool
##engine
abstract
someone
succeeded
udf
apps
certificate
children
generates
precision
translate
##fn
alternative
becomes
bound
classcastexception
compiling
nmake
participants
rewrite
sccs
candidate
moodlenet
resolution
sasl
simplify
terminated
topdir
userid
##filesystem
copied
debian
execbatch
overview
remaining
runnable
##checker
##int
allowing
amq
away
blueprint
encoded
installing
larger
nicols
potentially
qtp
referenced
rm
sqlline
tabletserver
##callback
##upport
deps
expanded
failover
family
gradlew
implementing
nwhat
runchildren
sockets
##ization
##ve
cgi
codes
destination
digest
reuse
specification
configuring
reply
widgets
apt
equivalent
footer
invokechannelread
migrate
retries
serde
testframework
##directory
draft
identity
linked
mm
nfile
nlog
wt
##ally
contract
dohandle
kinesis
leading
math
npm
##block
##cluster
##endpoint
##length
aggregation
commandline
fileelement
inputstream
invocationinterceptorchain
ran
scheme
suggested
##ge
junitcore
spent
ss
translation
unix
analytics
collector
depend
fixing
formats
optimization
spaces
windowed
eventually
leave
persistent
providing
rely
##resolver
bridgegemfire
construct
logincontext
noclassdeffounderror
virtualfilterchain
wildfly
##item
##of
clang
converting
nadd
overwrite
randomizedrunner
secondary
##exec
##fs
##order
##port
newly
quorum
rights
ruby
seeing
serializer
studio
zone
##bean
##ify
##transport
##ver
author
datastore
encode
gmt
interfaces
literal
nusing
pick
zstd
##age
##ated
##chema
calciteplanner
gridcacheprocessor
njul
si
solrcore
utilities
##ll
##um
await
benchmarks
duplicated
flaky
preview
producer
tblproperties
##recordreader
choice
ctr
follower
kill
nyou
overhead
scanner
singlethreadeventexecutor
##ator
##plan
##storage
greater
javasourceaccessor
matrix
mbox
numberformatexception
speed
tm
##coder
##ui
channelinputstream
compact
definitions
discuss
failontimeout
griddiscoverymanager
keytab
sso
taskexecutor
checkbox
instruction
pardotest
protocols
servicecomb
span
strong
ways
##ating
##ms
##statement
abstractlifecycle
hide
kwargs
mr
reproduced
scheduling
sqloperation
subsequent
todo
usually
##compiler
handlerequest
incoming
keyspace
locations
produces
##ime
cursor
errorprone
messagehubbackedobjectconnection
mongodb
nthat
stderr
win
##element
##main
doscope
exposed
happened
imports
javahl
onceperrequestfilter
processes
##get
##om
assertions
cython
delimiter
gridcachepartitionexchangemanager
mingw
stages
struts
tier
zh
##collector
##params
codehintproviderimpl
frames
manifest
passert
##ay
attachment
delegatingpluginfilter
expired
foundation
iteration
pq
upstream
##definition
##ie
commontestutil
disconnect
dndebug
documented
javacommontestutilprovider
jobmaster
logicalproject
mustache
ndf
platforms
resolver
topver
##mapping
almost
extended
solrdispatchfilter
worked
##ite
constraint
destroy
intended
internally
mc
orderable
profiler
supervisory
##ee
classnotfoundexception
combine
enrol
hours
jasper
located
oozie
plans
sales
tezprocessor
##root
cmv
device
displays
embed
environments
meaning
rat
traffic
widget
##access
converter
describe
emergency
executiongraph
gov
jna
ls
nsome
optimizer
adjust
automated
bz
datatypes
defaultpromise
invoker
requirement
subset
toolkit
unsupported
watch
##link
##ng
##offset
hc
hiveserver
preorderoncewalker
salary
stopping
teams
btpool
construction
detailed
gfsh
grades
icons
initializing
route
sections
soon
transactional
validator
vuln
zn
callparserresulttask
cancelabletaskwrapper
categories
cnt
columnfamilystore
compilationjob
decide
hydra
jackrabbit
macos
ml
nis
nnow
runtask
smaller
ursacomputing
##ant
approve
datanucleus
exe
ontrigger
overflow
pipe
thrpt
##ance
##update
ajax
basetable
deletion
iterators
##hook
##load
##ref
##template
arg
avg
bounded
classworlds
executequery
nacceptance
pagefilter
pane
redhat
reproduction
tracking
##output
awttask
badge
beginning
cfe
connectionfailed
heartbeat
layer
naming
nlet
produced
score
##env
##ource
compress
dataloaderpool
hint
incremental
ninstead
nwhich
popup
##ype
allocation
binarywritereximpl
channels
committed
getmimetype
maintain
primitive
relative
relnode
stuck
##ging
##write
createerrors
identify
nvd
paste
protobufrpcengine
raised
rebuild
runandadd
runhint
sender
symbols
turned
workerimpl
##mojo
##ty
##ue
acc
cce
computesuggestions
computewarning
cookie
efficient
getvalidcombinations
labels
ld
markdown
mqttconnection
mqttconnectionmanager
nist
populatelocations
redirect
scandonotgodeeper
sends
synchronized
testmethodtestdescriptor
zetasql
##host
##tatus
affects
blank
cat
consistency
incompatible
loc
nall
secret
war
##managerimpl
##point
##rt
assignments
indexwriter
jclouds
levels
loads
mqttpublishmanager
nmy
nshould
possibility
spout
stripedexecutor
xf
##ke
aware
distributedtest
exact
objectoutputstream
pod
reflection
sparksubmit
supporting
##partition
analyze
deployed
filtered
firefox
invoking
le
mapred
packageutil
pc
recommended
regardless
reload
runleaf
seq
significant
stdout
##collection
caught
contact
contexts
dob
gemfirecacheimpl
ndef
req
saving
tabs
##ck
##re
##ung
aroundinterceptor
blink
consumers
ln
ncom
reflectionutils
sedona
supervisor
websocket
##one
##ql
##serializer
narrow
nwhere
pyeval
suspect
##process
abort
angular
gridnioserver
person
round
stacks
stub
##conf
addresses
adjustments
capabilities
codebase
dagscheduler
getvalue
parallelism
restarted
tell
##ial
##put
card
fpic
icls
internaldistributedsystem
joris
myid
napache
partitioning
perf
protectiondomain
stackoverflow
svg
tr
truststore
##ff
##servlet
asserttrue
coming
conflicts
deb
ends
fallback
hoodie
instanceof
shutting
slice
timertests
anyway
arc
behind
compressed
dropped
indexed
ondone
policies
predicate
problematic
recon
reexecdriver
stores
validates
xsd
##out
aarch
annotator
calculate
figure
gzipfilter
milliseconds
presto
whenever
yml
##de
##ex
cm
limits
online
quickly
rack
stormjar
targets
testreplicationhandler
went
##graph
##ped
accessed
badges
breaking
nthanks
portable
representation
securityhandler
throwable
throwing
video
wall
xerces
##ch
##down
##mapper
buf
gobblin
grouping
ivy
specifying
stuff
wno
##protocol
amazon
backups
calculation
country
es
fineract
investigate
passes
sal
topics
words
attach
average
basically
dict
early
executable
linq
media
nroot
triggers
##nodes
abstractautowirecapablebeanfactory
city
contrib
downloads
ffff
fragment
loss
partial
retryinvocationhandler
saw
worth
##ible
##ip
authorized
bundled
consume
escape
formatting
gridcachedatabasesharedmanager
printed
ps
recordbatch
router
separated
smoke
suggestion
vec
##selftest
aborted
calciteassert
chance
conflict
dn
exporter
gridcacheadapter
identified
immutable
sorting
webappcontext
wesm
##long
##ow
##ra
##topology
aac
ago
emps
generally
inpath
junits
keyword
mojo
trystagepackage
world
##ine
##ne
acquire
attr
derby
dispatchevent
href
idx
initiated
jaxb
maintenance
mockito
removal
##doc
##read
##runnable
##sh
detection
missed
postgres
secs
strict
tutorial
##erializer
##th
ams
arbitrary
aw
clover
english
obtain
res
selecting
uint
volcanoplanner
##gen
##module
abstractservice
accepted
benefit
charset
drag
engineexecutionorchestrator
experience
hepplanner
indicates
latency
monitoring
mostly
pthread
substring
tz
##example
##ler
##less
datum
downloaded
javadocs
minute
pdt
pubsub
rd
timestamps
torg
visual
##handle
anywhere
lifecyclemodulebuilder
pop
prometheus
serverimpl
trees
vc
##launcher
aes
allocate
ast
bytetomessagedecoder
materialized
matter
nresult
nulls
preloader
rex
##ls
##names
##nd
##rows
##tag
##tool
##ync
automatic
classic
clientcalls
compactor
facet
funsuitelike
rid
simplepardofn
srcs
stdlib
##loop
affinity
cql
crc
img
investigation
ksort
merging
thanks
##codec
##ger
clipboard
consistently
doexecute
factor
filewriteaheadlogmanager
hour
ideally
obvious
plus
prototype
remain
walk
align
calciteprepareimpl
compared
fork
krb
nprivate
submissions
##ary
##ess
##ml
##rs
##tats
##vm
alerts
authenticate
declmime
enabling
entities
expecting
explanation
futures
heading
mime
publisher
reconnect
regarding
sezgin
testrangerauthorizer
wheel
appdata
experimental
initiator
listing
ordered
px
queryexecution
responses
solutions
sparksession
startrunnerwithargs
swagger
uploaded
##ink
##me
acl
archives
coded
cuda
influxdb
lazy
mpack
npyarrow
ordering
pg
prevents
price
subscription
##connector
##enabled
##entity
##ia
##ions
##scheduler
##validator
##xception
aria
atto
compat
derived
dns
effort
empno
gn
gson
huge
jraft
rep
servletholder
skipping
stale
uber
vulnerability
##ad
##inputformat
##ir
##keys
##ss
##tor
bcall
bring
builtin
cert
dl
getname
hb
matched
nthread
reached
replicas
rowid
starter
testworker
webapplicationimpl
##def
##izing
##report
assumes
caller
doj
flume
nid
nuse
poll
regions
trivial
verbose
##admin
##box
##failure
##location
##run
##sql
abstractfuture
backward
compilestatic
fillinterest
ignitecacheoffheapmanagerimpl
mapped
nnew
receiving
recursive
referencedata
replacement
signal
typo
usages
wants
##build
##il
createtestmethodshint
gt
installer
keeps
originally
overrides
queryparser
rb
scroll
stripe
unavailable
##hash
##integrationtest
##ise
##results
accessible
coding
directive
emui
executableinvoker
fsnamesystem
gui
neither
ra
receiver
sendrequest
sizes
testsuite
workflows
##ability
##ct
##partitions
amazonhttpclient
aries
bbb
bunch
clinit
expensive
fulfillment
javasource
jwt
nov
origin
relies
rendering
sharing
ttl
##am
##commit
##ers
aligned
deal
debugger
dt
gemstone
hooks
isystem
jpa
reasonable
scripting
serializingexecutor
supposed
synchronization
unfortunately
whose
wide
##producer
##ps
##tr
##window
cn
gzip
hivemetastore
hms
httpsolrcall
licenses
nfinal
normally
nout
playground
tiny
vectors
whatever
##flow
##header
accessing
entered
gadget
issuecomment
nbecause
practice
relbuilder
renamed
switched
unixexception
wan
##decoder
##work
checker
flowfiles
hierarchy
iterable
notify
paragraph
profiles
profiling
rsa
serve
submitting
testreport
wizard
workers
##app
##deserializer
##ping
accordingly
contextrunnable
displaying
expiry
leaving
repeated
##torage
abstractconnection
authorize
cleaned
concat
connecting
darwin
ignitekernal
iter
marker
retrying
reverse
tensorflow
##accessor
##args
##df
ask
directrunner
gcs
guess
hang
nrunning
opens
replicated
rowcount
sprint
sqlexecution
tif
##details
##pt
##use
backport
constants
delegate
enterprise
eq
labs
listen
optimizedobjectinputstream
outgoing
sk
##case
##ol
agg
cores
cycle
expects
feb
font
gax
gradebook
lorg
nupdate
observe
procedure
projection
relationship
serverconnection
snippet
##java
##level
##man
##off
buckets
detecting
driven
fate
formatted
guarantee
handles
health
identical
incomplete
parsed
published
removes
treated
##analyzer
##by
##meta
##null
changelog
connectionhandler
coret
hardcoded
idle
memtable
nmvn
performs
receives
remains
sign
toolchain
valueof
##chain
##invoker
##val
activated
approval
architecture
classname
dfdl
dot
getresult
handshake
ignitecheckedexception
latter
outputreceiver
parsermanager
slack
slightly
somewhere
stronk
threadleakcontrol
transformhierarchy
##im
asc
astreference
capture
confirmation
counts
dtype
excluded
gem
griddhtatomiccache
jcomponent
outer
preferences
searching
threadexecutormap
week
##agent
##http
cohort
groupbykey
languages
prod
reach
sstable
typically
units
##ile
##ring
##ro
##sink
##step
achieve
anyone
callsite
cleaner
consumed
defines
dependent
integrate
logsearch
maps
mismatch
mutex
proxyclassloader
servlets
switching
tibble
##ame
##ext
applies
clicks
covered
dept
enrolled
imported
keeperexception
nnot
years
##ab
##ore
##testbase
appclassloader
baseline
blobstore
care
concurrenthashmap
depth
dofilterinternal
forms
fortify
pf
ranges
sammyg
thought
ul
webservice
windowedvaluecoder
##attributes
##complete
##form
##parameters
##tive
##unit
##var
awaitility
checksum
contained
datasets
delayedlistener
deletes
enforce
exited
feel
firechannelread
gif
joins
karaf
lq
mutable
nil
opts
spatial
tickets
##ata
##ur
bytebuffer
consumption
counters
csharp
executorpolicy
fstack
jndi
kms
openprojectlist
resultset
screens
semanticanalyzer
##ec
##ning
addr
applying
au
bridge
deprecate
distributedfilesystem
druid
election
forkjointask
ftp
hashset
ideal
logout
nbuild
nuser
ol
parsers
provenance
sse
suffix
tc
teachers
typeerror
volcano
werror
##ard
##environment
##ey
##ised
##mark
##un
asynchronous
convenient
deadlock
dfsclient
dynamically
fetching
fit
iso
javabin
kv
lcwik
nby
official
powermock
simd
storing
swegner
usercodeexception
viewing
vote
##reporter
##transaction
##transform
algorithms
came
dofn
forever
getinstance
marshal
mention
nint
ostream
protoc
samples
seraph
signed
smtp
succeed
tmpdir
##frame
##mp
applicable
astblock
balance
cancellationtoken
cass
cglibaopproxy
channelread
comp
corrupted
cut
dirs
findclass
flatbuffers
gms
gridneartxlocal
ia
ipython
jspservlet
linking
logappender
modulecl
nnotice
setuptools
transitive
wrapped
##column
##dao
##ld
##serviceimpl
accountid
chat
externallib
federation
jointype
lt
mixed
modification
multifileobject
newsize
ngiven
orderables
pos
restlet
runjob
wanted
accepts
amp
chunks
effective
gstringimpl
igniteexception
npackedintsdecodebenchmark
outdated
pardooperation
processfunction
scans
significantly
statementadapter
subprocess
suitetestclassprocessor
tbz
timing
unicode
##ef
##ged
##ian
##ries
addressed
backwards
dispatcheventimpl
ename
ever
fileutils
flip
mask
nsrc
pagination
ping
rollback
runtest
saying
sf
sftp
skitch
##from
##js
basicmenubarui
bounds
cell
contextclassloaderdispatch
encrypted
frequently
front
hashcode
jmenubar
lesspipe
measure
ntests
persist
proxydispatchadapter
prs
qt
refused
repro
scottz
thrifthivemetastore
timeoutextension
timeseries
unwrap
##json
##monitor
##pipeline
##son
acid
appender
emit
executionexception
falling
invokeprocesselement
splitting
terminal
testindextoomanydocs
watermark
##cing
##lt
##xml
carbonsession
clearly
delivery
echo
externalresource
internaltemplatemanager
lack
leverage
logicaltablescan
nneed
nstring
offer
purposes
rendered
rolling
separately
tgz
variant
##ide
##system
##ut
advance
chart
gridcacheoffheapmanager
initially
nalter
placed
shot
situations
validated
vectorized
vfs
yetus
##ervlet
##invocation
##msg
##timestamp
crashes
datanodes
esotericsoftware
evaluation
filled
garbage
meetings
messagehub
ow
readable
sqlexception
trait
##execution
##izer
##option
##preparedstatement
downloading
fastprimitivescoder
forname
gridcachemapentry
gridjobworker
metastorage
operand
qpid
room
sg
wc
##application
##uri
activate
akkarpcactor
bloom
br
cloudera
entirely
exported
figma
hamcrest
logo
nabble
nsql
partialfunction
pdx
reproducible
servletcontainer
stat
throughput
toggle
##bility
##init
##issue
##mgr
annotate
assuming
coyote
focusedcommentid
followed
lts
ncan
ncurrent
nodemanager
nstack
ntable
rejected
reproducer
sandbox
vulnerabilities
##ast
##ful
##rpc
##trategy
##ual
activation
descriptors
established
evalframedefault
homebrew
ignitetxhandler
letter
optimizedobjectoutputstream
parseint
ports
preserve
retrieved
somehow
sslsocketimpl
##counter
##ix
##ner
##pec
abstracthandler
arrayindexoutofboundsexception
chinese
comma
decided
enforcer
friendly
hangs
iterations
offsets
placeholder
responsible
reviews
semantic
serializable
zlib
##change
##core
##ds
##html
##per
activemqserverimpl
bea
circleci
fault
fileheader
oom
overall
paging
ptransform
queued
reldecorrelator
sitemesh
standardhostvalve
terminate
timeouts
typedapply
##ified
##limit
##part
##receiver
##shell
##tasks
accounts
cdc
chunkedarray
coreloadexecutor
dom
elastic
enumerable
infinite
maintained
malloc
nrun
reject
relation
splits
suitable
xmlbeans
yui
##napshot
##ze
appveyor
assertthat
chosen
cleaning
collected
combination
concept
continuous
dec
giving
grader
hivemetastoreclient
iep
instantiation
introduces
jni
nn
orderedexecutor
oss
querying
reporter
shut
simpler
tthreadpoolserver
vault
xmlns
##ervices
##notfoundexception
##operations
##start
##testcase
ack
admins
appenderdaemon
autocomplete
behave
clientcnxn
essential
finding
helps
hopgui
keeping
listeners
populate
pumpevents
shards
simplified
story
tablespace
tracked
##binary
##go
actors
backlog
channelendpoint
cipher
colors
comparing
concurrency
confusion
dim
frontend
glossary
handlercollection
ignitetests
ignition
nassert
ncurl
npackage
olingo
scaling
similarly
simplenode
smart
tabpanel
tuples
unnamed
ursa
validatesrunner
##aggregate
##day
##ice
##merger
cbc
databases
delayed
destroyed
exceeded
findbugs
integrated
javaee
kept
locking
mind
nondex
overridden
semantics
slower
taskattempt
tp
truncate
writeobject
xz
zoo
##isation
##rate
aims
aliases
alnum
dependencytree
distributionmessage
filterholder
leaves
loggerfactory
nchecking
reducer
refactored
relsubset
requesting
sonarcloud
stops
tabletserverbatchreaderiterator
touch
typesafenodefunction
typeutils
ucx
understanding
unsupportedoperationexception
wheels
whereas
##attribute
##groups
##resources
accessibility
applyorelse
bom
controls
dbcp
diagnostics
expiration
foreachremaining
green
mappartitionsrdd
mimalloc
ngroup
pointing
proton
recover
reserved
screenshots
stamp
tablename
visibility
white
##columns
##leader
##rel
##translator
cliadapter
considering
cumulative
defaultbuildoperationrunner
enrolment
goals
handlemessage
hep
interrupted
isempty
kudu
nsystem
packagedprogram
picture
populated
replacing
strange
structures
supplied
tuplecoder
useless
verified
xae
##ave
##flags
##ids
##pi
availability
deploying
dofnrunner
doteststressreplication
filenotfoundexception
firing
generators
httpcomponents
instantiate
jan
jumpto
lesson
mapper
msvc
pcollections
pl
prints
purge
requiring
said
se
strategies
switches
tracerunnable
twitter
##body
##ot
##proto
co
dockerfile
fastthreadlocalrunnable
ignoring
indicating
lineitem
nspark
nstep
objlib
paneinfo
pi
positive
recipes
selectwordaction
sufficient
tmacs
transition
uncaught
xbe
##auth
##ield
alt
denied
differences
distro
fee
hiveexception
holds
independent
issuetabpanels
joining
llvm
nmore
nsolution
nt
pubsublite
rdbms
retrieving
stomp
transformer
##ead
##na
##ops
abstracthttpfilter
affinitytopologyversion
cossynchronizingindexer
defaultlauncher
effectively
exp
fileindexer
forkjoin
internals
managedexecutorimpl
nexthandle
nwill
posts
queryexecutorimpl
reduced
rev
routing
scanning
separator
threadfactoryimpl
##ack
##broker
##callable
##script
##sort
ahead
ats
attachments
board
copyresourcesindexer
deserialization
fnexecution
fuseki
interest
introduction
ios
ks
mutation
nreturn
nsevere
ntime
okhttp
placement
reused
rst
runinternal
serviceloader
stay
stringtype
tasklistindexer
##ase
##em
##outputformat
##status
abstractbeanfactory
abstractcallsite
ascii
asynclocalizer
center
cleared
coyoteadapter
deactivated
forkjoinworkerthread
fuse
gridgain
logupdateprocessorfactory
nextscope
nphp
nval
prefer
proc
pxd
reduceops
ring
tsfile
##buf
##encoder
##ession
##scanner
##select
among
apple
avaticastatement
basesemanticanalyzer
blockcnt
builders
consuming
defineclass
determined
entering
executes
interruptedexception
introducing
iterate
looked
matcher
mcv
miss
naccording
particularly
persisted
protocolpb
pwd
resolving
respect
standardwrappervalve
tbaseprocessor
threw
truncated
ver
vob
waitcnt
weight
##catalog
##control
##document
##erator
##oc
additionally
adjustment
bigdecimal
certificates
changeset
chunked
copies
copyright
devbranch
disabling
dispatchwrapper
durable
proposes
protector
readers
selects
standardcontextvalve
tb
tensor
timableeventqueue
unmarshal
ux
##default
##docs
##len
##only
##rdd
##serde
##tools
binaries
casualdiff
cayenne
concurrently
drawer
filechannelimpl
hs
migrated
nvar
pb
ratio
relatively
ret
specs
truncation
vorburger
xs
yyyy
##connect
##ort
##ystem
authenticated
egg
errorreportvalve
executioncontext
groupalsobywindowfnrunner
jspa
nlooking
nunfortunately
onclose
peers
quota
reducerecordsource
referencing
registering
represent
restriction
shufflemaptask
slots
sqlnode
standardenginevalve
substrait
toolbar
##ag
##der
##her
##holder
##ities
##memory
##og
##spec
calc
continuation
conversation
distributedregion
expansion
learning
meth
ncmake
nlibrary
objectstore
outerclass
outofmemoryerror
play
randomly
srv
styles
sudo
timeunit
treat
tserviceclient
xcf
##ha
##md
buildid
dataformat
debugiterator
declare
forkstarter
half
inactive
inetaddress
isa
jctree
mini
minortopver
nhow
nodetool
parking
presented
puppet
restored
revert
sc
scott
spanner
stringbuilder
turns
##constants
##coordinator
##creator
##elect
##program
##vc
clicked
cmakelists
codecs
datasources
dropping
fastavro
fecru
gdb
heavy
hpp
igniteconfiguration
indicator
inference
inherited
nadditionally
normalize
nsetting
obtained
onnext
pause
quotes
readoperation
risk
sizeof
tryfire
unpack
##elector
##fld
##lookup
##resultset
abstractjunittestclassprocessor
cr
dedicated
epoll
gpdb
highlight
ignores
mar
misleading
nuget
periods
severe
solrclient
tabletclientservice
testwatcher
tooling
trusted
##ain
##cs
##interpreter
##od
##position
##services
##tart
##timer
##tle
aggregates
apparently
articles
avx
binaryreadereximpl
cancelled
clientstreamlistenerimpl
contexthandlercollection
dpyarrow
duplication
enables
flows
httpsm
infrastructure
integers
integertype
introspection
ipv
loggingrunnable
magic
navigator
nload
nodeid
nprint
patterns
pushed
recipient
savepoint
silently
su
traversablelike
trim
##ence
##events
##fe
##func
##if
##let
##local
##pe
afilesystem
aim
anaconda
analyzer
bigger
claim
comparator
executionserviceimpl
flg
igniteh
jmap
lazycollection
nhadoop
nminiconda
nms
printing
resume
securityfilter
seek
sparql
tbinaryprotocol
waitfinished
##ert
##ification
##num
##ode
##ous
##si
aka
bower
buffered
conditionobject
corecontainer
courseid
customers
datastax
datastream
defaultbuildoperationexecutor
di
dimension
executions
flushed
forge
months
nbq
ncould
padding
percentage
pgsql
protection
qtestutil
queueimpl
sep
servletcontexthandler
sparkcontext
sstables
teardown
whitespace
##ction
##dd
##delegate
##ik
##password
##sing
##transformer
##wait
accesslogfilter
afn
asked
decision
defaultvelocitymanager
delegation
dofninstancemanagers
facebook
gridtaskworker
ietf
increment
middle
mimeresolverimpl
mtune
nav
news
pageid
quality
tika
trustedlistenablefuturetask
uberspectimpl
unbounded
vr
##ampler
##ba
##cl
##execute
##orm
##planner
##range
##rm
absolute
alloc
assumption
attempted
emails
forced
greenhopper
importing
logginghandler
mnemonic
nanother
nexport
nnpm
nserver
obviously
partially
preferred
props
reducefnrunner
resourceresolver
rsc
suggestions
translator
##condition
##contextimpl
##cy
##prefix
ace
beyond
cde
forkjoinpoolhierarchicaltestexecutorservice
infer
nbefore
orcinputformat
outputstream
respective
restarting
sendtoqueue
sendwillmessage
streamexecutionenvironment
translated
transportconnection
unchecked
usable
wp
##da
##junittest
##led
##match
##messagehandler
##rd
annotated
avoided
cab
dfsinputstream
dointersectionprivilege
fall
forked
fp
getconnection
groupby
hadoops
httpserver
httpurlconnection
imap
increasing
incubating
interceptors
interesting
jpeg
jupyter
migrating
nx
pt
queryid
safety
schemaupgradehelper
ship
singleton
tomee
topologies
yield
##act
##atch
##description
##nk
##tep
act
actorcell
aether
cargo
combined
dbl
despite
emc
emitted
eviction
exiting
fairly
floating
gmail
inserted
internaldataserializer
lint
lose
nfix
onfillable
readordinaryobject
streamclosed
testthat
transformation
uninitialized
##bundle
##children
##evaluator
##ks
##member
##pp
##term
bfab
callinternal
compileandrespond
confirmed
cq
ear
eof
essentially
expectation
flexible
fnapidofnrunner
fresh
injection
insertbreakaction
internallocator
involves
jacoco
mainly
mappings
meaningful
mirror
nfound
nonce
nquery
odbc
promise
quotechar
rexsimplify
testpipeline
tracing
triggering
typed
upgrades
weeks
##binding
##changed
##dev
##entries
##fc
##ical
##ins
##ish
##no
##resourcemanager
##ul
abstractfileobject
abstractplainsocketimpl
abstractsession
adoc
bolt
book
brokerfilter
commandlineclient
computed
dal
delegatingvcs
djava
edbc
ehudm
executedcommandexec
geometry
getwaittimems
increased
internet
invocationevent
involve
ipt
javasecurityaccessimpl
life
managedrangerauthorizertest
manylinux
mitre
mount
nissue
onto
optionally
partitionedregion
picker
reexec
sees
soap
ssd
storeroom
svnjavahl
timers
transient
tw
xxxx
##and
##dn
##ft
##resourceprovider
agreed
broadcast
crate
dcmake
fragments
happy
jakarta
mandatory
marking
nciao
parentheses
prepared
tcpcommunicationspi
threading
upcoming
xaf
##benchmark
##cursor
##desc
##for
##ok
##ory
##parameter
##ute
aspectj
assertionfailederror
basis
beanutils
benefits
bitmap
browsers
bus
complexity
conditional
defaultvelocityengine
discussions
dofninvoker
filestatusprovider
fileutil
frozen
googleapis
grpcapiexceptionfactory
guaranteed
hits
httpparser
john
mid
nduring
nfirst
recv
repeatedly
reviewing
rpcserver
treescanner
weird
##factorybean
##handlers
##invocationhandler
##socket
abi
accurate
adhoc
alignment
alive
apr
backed
commitlog
errno
extranet
followup
gradleenv
ink
involved
masterfs
mdlqa
mysqli
nhive
ntherefore
opexecutorimpl
packs
pagememoryimpl
pipelineoptions
preference
pub
remember
serial
trustedapplicationsfilter
unittest
upsert
##interface
##jar
##management
##messages
##ration
##ri
##tage
##ten
bq
buildproject
checkout
codegen
collapse
communicate
contrast
contributors
countdownlatch
designed
dest
dskiptests
dz
equality
fno
four
hp
maintable
meant
nobody
oidc
orm
rebalancing
reflective
releasing
rng
rss
sonar
tinymce
unity
userpardofnfactory
wrapping
ww
xmx
yahoo
##available
##gs
##max
##ric
##tatement
##updates
backtrace
bat
cfs
closes
contribution
deployments
dialect
differently
disco
drive
drivers
factories
firstname
held
imps
impulse
javase
jump
logback
meet
monitoringutil
nseems
originaltransaction
packet
panic
picked
prop
recordtype
slotpool
star
timestampedvalueinsinglewindow
vagrant
vulnerable
waits
wikipedia
##cc
##chunk
##dataset
##dispatch
##esult
##ied
##lint
##ma
##tablesource
##versions
astifstatement
cols
commented
currenttransaction
dab
inconsistency
ioomfailurehandlertest
issued
jql
lazylookupproviders
leaks
locallib
locate
lzo
malawi
nslf
punct
recommend
segfault
wrappers
##datasource
##ecord
##ets
##spi
##ulate
##uring
advisor
arch
binarywriter
callbacks
chooser
continues
covers
dataflowrunner
defining
gl
hmshandler
ic
ideas
immediate
jks
keyboard
logicalioprocessorruntimetask
mi
nextindex
nlooks
obsolete
perspective
preventing
raml
sock
solved
subclass
testoutputtimestampdefaultbounded
un
##can
##child
##dialog
##expr
##ics
##mail
##mb
##methods
##requests
##scan
##sp
##top
callablestatement
cl
composer
constructed
constructors
defaultlifecycleexecutor
deser
insights
jenkinsfile
ljavax
localization
lzycompute
mavenproject
motivation
nadding
preset
proof
retryinghmshandler
runincontext
slider
socketcreator
statusruntimeexception
synchronize
trust
##common
##decimal
##istic
##items
##kcvy
##open
##snapshot
##tab
answers
argv
belong
chars
checkpoints
cvename
dooperation
fedora
fire
getconfiguration
grecord
gridqueryprocessor
grouped
guidelines
ibm
indeed
itests
mem
mng
nedit
nignite
nm
openwire
parents
preparing
rank
represents
standardprocesssession
subtask
suppose
unittestimpl
workshop
##ang
##distributedtest
##esponse
##fd
##locator
##ming
##ost
##ror
##ving
abstractencodingfilter
advantage
aug
awkward
cachename
callablewithndc
cntrl
colour
composite
computation
dask
delegatingintroductioninterceptor
employee
exporting
exports
gems
grafana
hh
ini
itm
manner
modifying
nsolr
nstacktrace
picocli
puts
recording
refers
solid
stateless
staticloggerbinder
tabletserverbatchwriter
testrepair
versioned
worse
zones
##af
##aware
##bolt
##completion
##cope
##create
##failed
##ontext
##pattern
##sed
##uid
##utf
##walker
abstractchannel
accidentally
activemqthreadfactory
balancer
captured
completes
dep
edited
ended
hover
jspservletwrapper
jspx
jsr
jun
launched
linenumber
mailet
mina
minicluster
ndata
nthus
occasionally
pools
socketinputstream
stl
subscriptions
ti
tick
tiff
unresolved
viewed
##clientimpl
##close
##components
##hell
##ifier
##ition
##sl
##ux
astdirective
astmethod
batchdataflowworker
binaryreader
currenttimemillis
dataflowbatchworkerharness
duplicates
extending
externalize
getlogger
httpcore
iw
jdbcio
kafkaconsumer
knows
kotlin
lets
mvc
nosuchmethoderror
partner
power
preparestreamsandstart
putting
quot
rejecting
remoting
shall
tablets
tour
warmup
workerthread
wrote
xec
##allocator
##ask
##canner
##comparator
##connectionfactory
##edexception
##ep
##executorservice
##framework
##history
##records
##stats
abstractapplicationcontext
achieved
appendentries
bigtable
blocklet
concerns
deep
derive
disruptor
distribute
dsl
duckdb
enhance
exclusion
feed
highlighted
hope
iframe
joined
learn
man
mgr
moodledemo
multibranch
nget
nmaybe
nonly
noted
pressed
processrequest
pyibz
showed
suspended
tablemanager
technical
thinking
toc
##ative
##cli
##eader
##iation
##kit
##late
##mer
##tester
##ulator
##users
asserting
asserts
casting
codecvt
compilationunit
connectabletask
convention
defaultbuildpluginmanager
est
estimate
explorer
foreachops
gh
gmsmembershipmanager
hcatalog
httpjspbase
inc
invocationtargetexception
leaf
managing
medium
multipart
ncode
nnifi
noutput
optimizations
pgstatement
processorbase
prone
publishing
returnflag
runjar
runsuitesinprocess
safely
selenium
testdb
tf
thousands
vehicle
xac
za
##back
##executionexception
##flush
##izable
##ov
##pace
##param
abstractsurefiremojo
adjusted
belongs
brought
business
busy
cbo
cells
docall
encrypt
exc
excel
execnode
fetched
fillable
frequency
genericdatumreader
improving
january
jgroups
joda
machines
march
meeting
minidfscluster
moodlehq
mouse
nexmark
nl
nscm
operating
quoted
reservedthreadexecutor
rexbuilder
stacktraceelement
stringutils
subquery
tarball
towards
turbodbc
workspaces
##ax
##builderimpl
##cat
##componentadapter
##ding
##image
##ivity
##lient
##matcher
##ress
actioncleanupdelayfilter
ai
awssdk
bob
cellar
ck
disconnected
endian
everywhere
excluding
fff
filterinputstream
flowengine
gora
inserts
jshell
lifecyclestarter
locators
markup
mockup
moodlelib
mxnet
nambari
nindex
odata
odd
periodically
perl
profilingfilter
recreate
research
singlethreadedbuilder
somewhat
synchronous
tableoperationsimpl
termination
trackback
typing
wish
xad
##boolean
##dl
##ined
##testrunner
##ulation
##wd
aae
administrators
analyzeinternal
archetype
areas
blockmanager
committer
constraints
dirroot
eliminate
encoder
entrypoint
expire
fmt
gpg
guice
imaging
ingest
intermittently
kafkaio
mvcc
ngithub
nlib
nother
nwould
piece
polling
printers
receivers
reporters
rolled
scss
specifies
sqoop
straightforward
subscribe
trailing
txstate
violation
##book
##ender
##finder
##li
##mq
##ub
##warning
##ws
abstractniobytechannel
blocker
calculating
clustering
complicated
converts
datanodeinfowithstorage
definitely
evaluatesequential
getobject
hacluster
jpda
late
latitude
learner
li
logstash
mov
namespaces
ndiff
pasteaction
presence
pressure
pubsublitesink
quantities
rcpp
redirected
relying
replay
restrictions
retried
samethreadhierarchicaltestexecutorservice
shape
ssp
statuses
stellar
stockmanagement
timestamptype
transcode
turtle
typename
usp
vars
wf
xss
yr
##ans
##byte
##creation
##delete
##eb
##erate
##folder
##ight
##les
##pack
##predicate
##py
##stop
##tch
##ube
##uccess
##way
absent
backpack
bp
brew
brokers
company
deterministic
disappear
elsewhere
extremely
fired
fr
fullname
globally
holding
hortonworks
kafkaspout
locatorgemfire
logicalplan
njavax
notifylistener
npossible
nprintln
ntypeerror
serializers
sonatype
suggests
traces
typesafe
uniwhencomplete
##claim
##copy
##equest
##eventlistener
##fa
##fully
##information
##injector
##logs
##mbean
##observer
##package
##tx
##ys
abstractbeforeafterrule
abstractinterruptiblechannel
amazons
annoying
ar
btn
canvas
connectionmanagerimpl
corporation
datasourcewriteoptions
drivermanager
ending
exceeds
gap
importer
instant
jdkdynamicaopproxy
jiraservletdispatcher
lease
ndefault
neven
nmoodle
npython
ntry
nullptr
objectstreamclass
pruning
recoverablewriteritcase
reducing
reljsonreader
resolves
selectchannelendpoint
selectorimpl
syncope
tagged
temporal
themes
thu
typeid
undertow
wagon
yum
##appender
##arguments
##classpath
##closeable
##do
##enum
##iter
##repo
##sender
##ster
##ule
##unner
alone
bindexception
clientid
compilers
corner
cqlsh
creator
dataobject
dataprivacy
degree
direction
disruptorqueue
enforcement
evaluated
favor
foreign
identification
ignitecacheproxyimpl
inform
instrument
interested
libasan
longitude
lrz
micronaut
mistake
ndue
nname
ntype
pkcs
plumbing
pods
pooling
projectid
protect
quorumpeer
recognize
requesthandlerbase
sbt
searches
sleeping
sparse
sshj
statemachine
tracks
typical
unified
unnest
violations
ygrid
zst
##ath
##constructor
##functions
##ig
##lite
##ons
##permission
##red
##tables
##tuple
##ug
##ular
##ution
aaa
beneficial
blocksize
braces
computing
conditionfactory
datastreamer
defaultjobbundlefactory
demand
empid
executeproduceconsume
extracted
faa
flushing
frameworkservlet
handleevent
impala
indent
invokehttp
javafx
libhdfspp
lms
localedef
mesos
miniraftcluster
moves
ndocker
npr
nscala
ogv
operate
ordinal
outputrenderers
passwords
pojo
quartz
rar
readcallback
renaming
respectively
severity
sqlcall
sqlutil
standardprocessornode
structured
timeoutexception
unblock
##cloud
##ctx
##ettings
##metric
##now
##oad
##ose
##renderer
##tp
cid
clock
controllers
credential
decoding
decrease
developed
dumps
faces
fake
finds
formula
forwarded
getclass
hunspell
ioutils
jul
linestatus
malformed
met
mf
midi
modifications
mutate
mygeohash
nadmin
nclient
nconnection
openssh
optimal
phrase
producing
propagate
readserialdata
reduces
reentrantreadwritelock
semi
sshclient
standardversionedcomponentsynchronizer
stubs
unlimited
vcxproj
vendored
wildcard
##ac
##ake
##delay
##dofn
##errors
##ev
##ftp
##indexer
##itive
##kind
##profile
##queryexecutor
##stest
##ta
##ym
abstractprocessor
annotateicon
aoputils
arithmetic
bigbluebuttonbn
bytebuddy
cards
chr
comm
compactions
differ
doinvoke
existence
gadgets
gone
gracefully
groupalsobywindowspardofn
hitting
hudson
ignitenamedinstance
influxdbimpl
injectionutils
interact
isolation
jobid
lzma
mbeanserver
mdc
mpg
ncontent
necessarily
nideally
nsc
nthey
offers
oserror
processline
prompt
rddoperationscope
respond
rle
scipy
scorm
sideeffectresult
sticky
stormtimer
succeeds
supplying
systemd
tertiary
testcontainers
udfs
validating
vectorgroupbyoperator
verifying
volatile
webcomponent
welcome
##ae
##factoryimpl
##hashmap
##import
##kafka
##pa
##translation
##used
##wt
accord
aslist
assertquery
broke
checkpointing
choosing
clustered
collectors
copyinto
dense
dorun
dropwizard
eff
emf
everyone
extraction
fileinputstream
gettype
indefinitely
jloggerfactory
jolokia
kou
legal
limitations
mh
mutations
nany
nattached
navigating
nok
nself
nwrite
onfailure
overriding
owasp
pax
permitted
postcomplete
pyobject
rexnode
scratch
serious
sessionimpl
shipment
stateful
styling
suppress
trash
typos
vms
voltrondata
xpath
##capacity
##dependencies
##domain
##editor
##exchange
##first
##fix
##joinrule
##ob
##obj
##packet
##relation
##rules
##target
##ua
##unsafe
##ware
abstractaspectjadvice
abstractnioclientworker
antlr
bceval
bugzilla
catchandrecordfailures
clusterentrypoint
concurrentmodificationexception
contributing
dealing
defaultscheduler
em
guides
hl
inbox
indication
initiating
limitation
mapelements
mpeg
myoverview
napr
narray
nds
nlist
onexecute
opinion
pagemem
phoenixstatement
rdf
realized
righthandpathrule
sar
scrolling
setproperty
sm
sphinx
unicastserverref
upgradecatalog
utilization
valgrind
valves
volumes
##bc
##ca
##cast
##cheduler
##configurationschema
##database
##dk
##erimpl
##iate
##lab
##nce
##rowcount
attention
cba
comparisonfailure
computeorreadcheckpoint
contextid
curly
daily
developing
evaluating
evt
exclusive
fdb
forgot
geom
gist
hardware
icu
implies
increases
innerservice
invokedelegate
lastname
letters
linkedblockingqueue
listening
nboth
nfailure
nlink
nremove
nright
onmatch
osswapint
ozonemanager
postcommits
presets
propagated
qty
rabbitmq
raises
ram
reproduces
rz
sampling
scanned
startgrid
uat
unlock
watcher
##bd
##ily
##light
##lot
##next
##panel
##rep
##words
##writable
accessor
acquired
borderstyle
concern
constructing
dbexception
dm
dwm
ease
epic
executeinternal
executetestset
filtersecurityinterceptor
generatedclass
getproperty
grant
indexoutofboundsexception
inverted
jaas
jm
launching
majority
matcherassert
mkv
nf
njames
nstart
ntotal
nvoid
objectmapper
optimizedclassdescriptor
participant
qtype
regexp
restarts
sitemeshexcludepathfilter
supplier
swap
temporarily
utm
visitor
wav
webm
wrapandcopyinto
##balance
##pages
##rc
##runtime
##ures
affecting
asynchronously
authorizer
bintray
bmp
callablewrapperdofn
clearcase
clearing
cond
cor
demonstrate
exposes
fli
greatly
highly
historical
hotspot
hrt
imagine
inclusion
instantiated
johnson
menubarfolder
ncommand
nreproducer
ogg
ogm
pacemaker
pcx
perflogger
pickle
pythonunbuffered
revisions
rexcall
seedinfo
simultaneously
standarddirectoryreader
threadlocal
till
timerdrivenschedulingagent
txz
tzst
unchanged
uniq
verb
workload
xterm
xyz
##ail
##ao
##bit
##bridge
##cd
##elements
##here
##lass
##nable
##site
abstractjohnsonfilter
acceleratorbinding
allocations
alz
ambarihandlerlist
anti
arj
assemble
avi
bab
backpressure
bigqueryio
binaryfieldaccessor
cachedfileobject
cachedinputstream
cgm
collation
cpio
defaultpardofnfactory
defaultserviceregistry
descriptions
diagram
dispatchinginvocationhandler
distinguish
district
dotask
edits
elytron
esd
existed
expires
faq
finddataobject
findmimetype
flac
flc
flv
fuzz
getinputstream
grideventstoragemanager
guard
hivesessionproxy
hosted
inserting
installlisteners
interpreted
invokelistener
keystrokeforaction
leaderelection
lessclose
lessopen
lha
libglib
lifetime
lzh
maprecordprocessor
mjpeg
mjpg
mka
mkdir
mpc
nbased
notifylisteners
nproblem
nuv
oga
ogx
oldpwd
opus
outcomeof
pbm
pgm
ppm
processselectedkeysoptimized
pumpeventsforfilter
pyspark
pythonioencoding
queryplan
restricted
resulttask
rmvb
runtestclass
sb
setui
shlvl
slaves
solrindexsearcher
sparksqlclidriver
spx
sslconnection
svgz
swm
tail
taz
tga
threaded
tlz
tzo
updateui
usability
valentyn
vectorizedparquetrecordreader
waitfor
wim
windowsmenubarui
wmv
xbm
xpm
xspf
xvr
xwd
yuv
##ace
##bing
##bs
##cb
##cfg
##cp
##exists
##grpc
##ically
##merge
##ors
##paths
##recovery
##tack
##testutil
##tl
##utilities
##watcher
accumulator
appeared
augmented
avaticaconnection
babel
blobs
connectionimpl
costs
divo
doget
ebe
effects
enforced
excludes
filling
gpu
harder
initializeandrunprocessor
inspect
iocore
leadership
localsettings
lowercase
marks
nbelow
ncreating
ndeprecated
ndrop
ognl
plt
pluginfile
poc
pyflink
raftlog
reshuffle
retrieval
ser
sidebar
sqloperator
sr
svnkit
tableenvironment
tempdir
unrelated
webapps
wl
##active
##char
##fb
##gy
##hs
##ium
##master
##ments
##ock
##ound
##parseexception
##ved
acceptable
aff
agents
alluxio
beforelookup
cacheconfiguration
cachefactory
casts
classgen
collapsed
compilejava
compressioninfo
containerbase
containerstatemachine
createtable
crt
ecc
ensures
fileoutputstream
flat
fusing
gobject
gridembeddedfuture
guest
hanging
helix
interaction
interrupt
jra
localizer
metaclassimpl
mysqlio
nginx
nom
nvidia
pcoll
pem
pointed
preparesql
recorded
regenerate
resulted
retain
smallint
spliterators
subscriber
taxi
tenant
testresult
usual
virtualenvs
wcag
writefiles
xdebug
xeb
##ables
##add
##arrow
##authorizer
##contextfactory
##ean
##fingerprint
##ib
##ident
##mask
##net
##pos
##space
##topic
##ually
##zing
apart
arraydata
assembler
bag
charsequence
classnode
collecting
conversions
counting
decommission
distributionmanager
eea
enrichment
executewithrerun
fae
flexibility
flyway
gridtaskprocessor
hack
homepage
httpsolrclient
inherits
initializer
invokes
jgit
jose
keyspacemetricstest
linear
logicaljoin
macros
masked
nflink
nfs
nstarting
parrot
polygon
popover
predicates
processmessage
programming
pumponeeventforfilters
pyfunction
reactive
realm
resize
restoring
ro
rollup
rpccall
scoped
servermanagerintegrationtest
spotless
springapplication
srmanager
stability
submodule
suppressed
testoutputtimestampdefaultunbounded
trouble
ugi
unclear
valuestack
viable
volcanorulecall
##ations
##bucket
##configurations
##conversion
##cted
##ded
##ently
##he
##ier
##med
##objects
##rn
##sc
##trace
##zip
abcdefghijklmnopqrstuvwxyz
afterwards
aggregated
asking
audience
baseloginfilter
became
billing
circle
closeable
coalesce
compiles
confused
correctness
corruption
cpython
csproj
customize
ddd
defaultreadfields
engines
fieldtype
freelist
freon
golang
hashing
ignitesqlparserimpl
inserttabaction
lag
mongo
moreover
nexecution
ninja
notified
nr
nthank
ou
outcome
pairs
parseexception
priorityio
provision
provisioner
prune
ptests
pybind
readonly
reformatter
remark
represented
reraise
restrict
rtmpoxzghl
runpriorityio
seb
sessionid
talk
testrangernifiauthorizer
toolrunner
tpublic
treepathscanner
writers
##are
##closure
##cnt
##comment
##connections
##ents
##infos
##ining
##ising
##macro
##ocket
##ool
##pan
##ray
##recordwriter
##ree
##subscriber
##ural
##uuid
abstractstreamoperator
approaches
baz
carbonappendablestreamsink
concrete
dad
dataobjectenvfactory
deadline
defaultalloc
directexecutor
ebb
erick
establish
exceed
filechangedmanager
ftl
geronimo
hex
histogram
hot
inlined
isolated
lru
million
mink
msb
multicast
ncall
ofbiz
ownership
paper
poolimpl
portlet
providedextensions
radio
reflected
rpmbuild
saves
sendevent
sequences
slash
standardflowservice
strip
unrecognized
validity
vsts
writelock
xsi
zxid
##aa
##ably
##blob
##ci
##col
##ember
##gc
##implementation
##interval
##publisher
##threads
##views
##weight
##with
acceptorimpl
acls
alternatively
avatar
bcf
cas
ccache
cglib
chronicle
cohorts
controlled
corresponds
crashed
currency
datainputstream
declarations
deserializer
died
doxia
dyn
fbb
fcd
former
forums
getid
getmessage
gridcompoundfuture
gridtestutils
grpcserverprotocolservice
gziphandler
highlighting
inst
installs
investigating
junitplatformprovider
lidavidm
linkedhashmap
logicalfilter
losses
maprecordsource
maptaskexecutor
misses
mon
moveonlydatatype
npq
nschema
omnode
opportunity
patches
planned
projectapi
proxyuser
pumpeventsforhierarchy
qtime
recipe
regionserver
rewritten
robust
routes
runandreset
safari
serversocket
setproperties
snip
soh
sstablebatchopen
sstablereaderbuilder
strictly
traceid
transferred
trident
ut
validations
wed
xmldb
##anager
##datatype
##diff
##dy
##ell
##filename
##nn
##oy
##rr
adapt
ambiguous
archiver
autoscaling
binaryclassdescriptor
blame
brotli
bzip
checkpointer
checksums
cls
collate
completing
createexception
ctor
dbaccessorimpl
deliver
dispensing
dumped
elem
eofexception
eol
expectedexception
getkey
globalwindowcoder
gridh
htonll
indicated
inefficient
insight
intersect
leaked
logicaltype
mix
nproposed
nrelated
posix
posted
preparation
processcmd
rand
rare
reflectutil
reusable
roll
rounding
salesforce
searcher
similarity
sorry
sourcing
spotbugs
sqlparser
storageservice
temperature
totally
tracer
unset
vals
vectorcall
wip
withnewexecutionid
yunikorn
##ates
##awareinterceptor
##category
##datamap
##dto
##egment
##face
##fertigung
##filters
##han
##ient
##kt
##literal
##mxbean
##onnection
##pointer
##taskexecuter
##ties
##times
##uild
##utable
##width
actionsupport
aggregations
avolkov
baf
bcc
cassandradaemon
committing
cst
customfield
escaped
excludinglookup
exits
exposeinvocationinterceptor
externally
fexceptions
forinputstring
formatter
ga
gflags
gridfuturechainlistener
gw
hg
hopefully
implicitly
injectorimpl
intermittent
junittestclassexecuter
keywords
kinds
lacks
libr
modern
modifier
ncd
nfollowing
nfull
nj
nullability
operands
pacemakerclient
packaged
perflog
portion
pulling
relationships
remotedunitvm
replacedirectednetworknodes
resourcemethodinvoker
rrd
runtimemacro
sa
servicemix
startswith
subclasses
superengine
testeventlogger
throttled
throttling
typehints
umschl
workqueue
##ages
##earch
##ect
##hdfs
##idx
##ill
##its
##logy
##org
##payload
##proc
##ptr
##replicas
##sampler
##struct
##uct
##usage
##ying
authenticator
boundary
circumstances
conventions
cors
defaulting
desirable
dill
disappears
discover
eagle
encounter
enhancement
epolleventloop
execcontext
fca
fewer
frx
generalaction
graphs
grow
gwt
horizontal
insensitive
javassist
jetbrains
jute
light
loops
maintaining
markers
msys
mut
natural
njmx
notnull
nreading
nremoving
overwritten
perfectly
pipelineoptionsfactory
pooltcpendpoint
ppc
prediction
pressing
reachable
refreshed
regards
reify
reljsonwriter
requestexecutor
retained
rootinputinitializermanager
saml
stress
swift
timedelta
troubleshooting
unify
unstable
vch
workbench
writecounts
xapi
##actions
##byname
##equals
##fragment
##handling
##ign
##initializer
##irectory
##ki
##la
##loaded
##ncies
##runtimeexception
##uck
allocating
amt
android
besides
cad
callers
canceled
cardinality
clauses
comparisons
compliant
computeifabsent
consequence
convenience
corrupt
customized
datastructure
defaultmbeanserverinterceptor
deque
division
doexec
eacedb
ebf
ecdhe
ecf
ensemble
epi
executeprogram
exposing
followers
ftap
gcm
httprequestmessage
individually
intuitive
issuer
iterating
kerby
leaderfollowerworkerthread
microservice
myfaces
nalthough
ncamel
neach
nexus
ngfsh
nmeta
occurrence
oldest
ongoing
openhft
pagememory
partitionid
pentaho
portal
preceding
presumably
probability
protonhandler
pulled
rec
reserve
sasldatatransferclient
shortly
stmt
subtasks
taglib
tcpdiscoveryspi
tenv
tue
unauthorized
unitofworkimpl
unlike
unnecessarily
unwanted
urllib
va
vectorizer
videojs
##bound
##bytebuf
##checkpoint
##checksum
##ew
##fetcher
##filereader
##hub
##links
##listeners
##pg
##providerimpl
##ression
##sv
##updater
##upgrade
##withretry
administrative
attaching
authors
carbondatarddfactory
clientsession
compacted
coreclidriver
dark
decoder
demonstrates
existent
fieldname
finalize
finalizer
forcing
gatewayprotectedcacheproxy
getbytes
guid
human
impacts
independently
intent
jd
limiting
lua
managedthreadrunnable
memtableflushwriter
namenoderpcserver
navbar
ncase
nconsider
ndownloading
newest
nozone
nresults
onevent
osx
proposing
pyenv
routed
rowtime
snakeyaml
sslcontextfactory
streamsource
submitrequest
svc
tjava
tooltip
unlikely
webserver
xlarge
##acl
##ange
##backend
##cf
##decorator
##ency
##eter
##gate
##ges
##hy
##identifier
##ired
##lse
##random
##role
##tar
##uc
##we
##zed
accepting
appended
caffeine
cda
chrono
clickable
cliservice
closer
compressor
conditionawaiter
consideration
copyaction
decoded
defaultkeyboardfocusmanager
describing
dofnprocesscontext
drill
dst
emr
failback
fetchoperator
ffa
fullregression
getter
grammar
ice
intervals
japi
lazyseq
mbean
mentions
nac
ndate
needing
njust
nour
npath
nsample
nscenario
nyc
orelse
pin
placehold
printf
processregularmessage
putall
raftserverproxy
readability
remap
segmentinfos
sendthread
tcliservice
tdml
thinks
tt
wholestagecodegenexec
wraps
yields
##annotations
##attr
##ctive
##dict
##imal
##labs
##lifecycle
##ome
##pad
##rest
##ulo
##ured
##vn
abstraction
assumed
cancellation
chamikara
chk
contention
conversations
cves
defaultpluginmanager
describes
devices
dialogue
dirty
distance
ducktape
efficiently
failnotequals
finishes
forbidden
fulfill
generalexceptionmessage
getfilestatus
graphql
javarefactoringplugin
libstdc
lubridate
mariadb
mib
mins
nextbatch
nunit
omega
openqe
peek
personal
poi
qfs
raftgroupserviceimpl
recognized
reentrantlock
regressions
regularly
remoteexception
rmiexception
rpath
serializing
shipped
sinks
slices
spawn
stays
stdio
supervised
tailfile
viewport
windowinto
xubo
##alias
##ats
##bf
##binder
##clienthandler
##columnreader
##credentials
##datawriter
##dc
##filewriter
##harness
##home
##ission
##lan
##ny
##once
##onfiguration
##override
##rite
##std
##uth
abstractniochannel
accesslib
apiclient
arraybuffer
ascending
backtype
beamapp
booterclient
bouncycastle
callsitearray
capable
checkforerrors
configdocumentparser
considers
counted
createbuilderimpl
createtestclasshint
curatorframeworkimpl
delivered
detects
diagnostic
digits
distributedtestopenjdk
executemethodonobject
exhausted
facilitate
facing
feedstock
filed
futureutils
gpl
imei
jeditorpane
johnzon
jsch
knowing
licence
memorypool
methodproxy
minikube
modinfo
mytable
nativelibraryloader
neutral
nleft
nmost
nodejs
offheap
outline
outputcolumnnames
outputwindowedvalue
overlap
pagehandler
pagesize
positions
pp
predefined
processselectedkey
processselectedkeys
quasar
rapidjson
reliable
reproducing
rethrowasioexception
retryingmetastoreclient
shims
snmp
statically
symlink
tech
translations
traversableonce
widely
zipfile
##ement
##eq
##ister
##left
##migrationtest
##nal
##parallelism
##projects
##ran
##received
##through
##tyle
##vent
aed
ansi
approximately
argc
assignee
balancing
bcdd
behaves
boxes
calcitemetaimpl
certs
checkboxes
clarify
clazz
contenttype
corrected
correlate
dcassandra
directchannel
discarded
distcp
doe
epollarraywrapper
eventdispatcher
execchain
execplan
five
forwarding
fqdn
globalconfiguration
gridjobprocessor
holder
indexer
inferred
inherit
intention
interpret
ioutil
jobgraph
jq
keepalive
keytabs
libminifi
linkedin
listarray
lo
loginmodule
modes
monday
multilang
ncarbon
nchange
nenter
nwithout
objectweb
okay
onerror
pandoc
partkey
pathname
pig
predictions
processsession
pure
quickstart
quit
rawlocalfilesystem
recursively
remoteinterpreter
replyprocessor
requestcleanupfilter
rexliteral
rowtype
rwstd
rwstddebug
scr
segmentation
serverconnector
spnego
standardprocessgroup
structarray
svnclientadapter
treturn
tricky
trip
ttransport
valueerror
vnxt
##be
##executer
##httpclient
##ifies
##like
##lk
##millis
##notfounderror
##ope
##ream
##ses
##tatistics
##unction
##ust
##watermark
##zone
abstractregion
appearance
bgcolor
binarycontext
binlog
breadcrumbs
bufferedreader
builtinclassloader
caucho
classreader
compl
conform
correcting
cvs
cz
dimensions
discard
edition
epoch
epollselectorimpl
executeactionstaskexecuter
extent
findnextaction
fly
forget
fraction
funsuite
gridtostringbuilder
groupglobally
grunt
highest
improves
invokeproviderinsameclassloader
itemid
javabincodec
jmh
lfkghkc
meds
metaexception
methexecutor
methodfilterinterceptor
methodname
minc
nextint
nightlies
nmap
opposed
pluggable
poor
practices
processexception
restructure
rfile
ri
setexception
simplecompiler
sized
smith
social
streamer
tscontract
txid
ultimately
urlrewritefilter
utiltest
vcpkg
worst
xsimd
##addr
##blobstore
##compactor
##ens
##entities
##eting
##feature
##fo
##ict
##jni
##ncy
##pass
##products
##remote
##tic
##transfer
##ubmit
##windows
apidocs
appropriately
aroundreceive
bam
basecommand
buildconfiguration
cdefault
cec
choices
classifier
clearer
closeablehttpclient
consistentid
consul
culture
cwd
dao
dbstorebuilder
defaultlistablebeanfactory
defaultusermanager
delays
dereference
dispatcherservlet
doesnt
dto
editpdf
endswith
ensuring
essay
experiment
fig
forces
fsimage
gather
generics
guarantees
headcontext
insufficient
integrating
integrationtest
ints
invisible
invokeall
jline
jvms
kdc
lwp
messageid
methodinvocation
ndaffodil
nearly
nfinally
nopenjdk
opencensus
overloaded
packets
plug
qualified
queried
readall
rebuilding
recommendations
redirects
relfieldtrimmer
repositoryhandle
rextolixtranslator
rtpsw
sarg
servercallimpl
solves
sshserver
starttime
stated
structtype
tableid
teamcity
thirdpartytoolchain
thoughts
treemap
unhandled
unread
workerprocess
workplace
writable
##ache
##actionfactoryproxy
##authentication
##bb
##bin
##blocks
##closed
##configurator
##detector
##etch
##hing
##interpreterlauncher
##iv
##layout
##lly
##min
##mt
##nr
##oo
##opts
##parts
##pc
##ready
##recursive
##requestprocessor
##tablecommand
##tled
##ubmission
##yi
abstractjavaresourcemethoddispatcher
abstractnodenameawaremarshaller
allitems
amounts
apiexceptionfactory
bcel
bdb
buildtypeid
bytestring
callblockingmethod
carry
chassis
clientnamenodeprotocolprotos
clientnamenodeprotocolserversidetranslatorpb
clientutils
concurrentqueueinstancemanager
configurationchanger
confluent
connectexception
constantly
constructorresolver
ct
deserialized
dlab
dpl
ead
efforts
elek
enumeration
ephemeral
equinox
estimated
eu
exclusions
flatmap
gain
getchildrenbuilderimpl
griddhttransactionalcacheadapter
hivecontextawarerecordreader
hiveexternalcatalog
hivesessionimpl
hmac
imo
interruptibletask
invokejoinpoint
jiraprofilingfilter
la
leaderlatch
manifests
maoling
massive
materializevalues
ncheck
nexplain
nfails
nnode
nnumber
nodename
nof
npa
nperhaps
nreason
oct
partners
player
putty
raftserver
referer
replies
restfn
roller
san
sdf
sequential
shim
solrexception
sqlimplementor
sysv
training
tugibasedprocessor
unmodifiableset
wifi
wonder
writeid
##authenticator
##bench
##benchmarks
##board
##counters
##dt
##expressions
##heap
##hint
##hr
##ibly
##importer
##ioexception
##ioreactor
##listing
##maker
##operators
##ox
##pane
##python
##queries
##settings
##stage
##stamp
##timeoutexception
##tm
##uting
article
assigning
avoids
axis
baa
birth
brings
bro
combo
consists
distributions
easiest
efc
eventtype
extracting
fashion
fname
frequent
fsspec
granted
ign
jaxws
jspservice
kratsg
libhdfs
loggingthreadfactory
meter
multivalued
nadditional
namely
nanoseconds
ncol
ncore
netutils
nwaiting
pieces
preparedstatement
presentation
probe
protos
readthedocs
recovered
redist
relational
restclient
reverted
rollover
routine
rtmp
scores
setter
simplest
socketchannelimpl
statsrecordingthreadpool
straight
structs
subdir
superset
survey
tdb
throughout
tinyint
tip
totalityfilter
txcommitmessage
typeoverride
uploads
utilize
variants
vcores
wrongly
xfire
##accessible
##actory
##allowed
##art
##aster
##caches
##creationexception
##cript
##di
##duration
##ellow
##encode
##exporter
##extractor
##gemfire
##gi
##grid
##hi
##ings
##ject
##library
##lines
##lose
##onfig
##own
##pair
##parquet
##plit
##reportingtask
##rf
##sible
##sume
##union
##variable
##ward
aborting
adapted
apachesoftwarefoundation
assertioncondition
binaryutils
browsing
calculations
calculator
candidates
clientsessionimpl
closeobserver
conflicting
contributor
cookies
datacenter
ddb
dff
differs
dispose
edc
emptyborder
failurecontext
gauge
groovysh
grp
hashtable
igniteex
incremented
invalidate
invoketestmethod
jarclassloader
javapath
jpountz
lb
libz
lifecyclebase
locals
mat
menus
minimize
mirrors
nameservice
nattributeerror
ndpkg
ngit
noshadowingoroverridesonmethodsrule
nsuch
ntesting
orderkey
permit
ported
propagation
protobufrpcinvoker
replaces
rewritehandler
screencast
searchnbeditorkit
secundus
serverlauncher
setters
skips
smallest
sqlcontext
sqs
starred
stormsubmitter
streaminggroupalsobywindowviawindowsetfn
streamsession
testnameid
testruleignoreaftermaxfailures
testrulemarkfailure
tezgroupedsplitsinputformat
ttransportexception
unixfilesystemprovider
wbem
whitelist
##bar
##callbacks
##cleanup
##commandhandler
##econd
##erable
##ethod
##filterchain
##formatter
##handlerfactory
##har
##ht
##ices
##identity
##ind
##ines
##itter
##ively
##kernel
##keygenerator
##lang
##loc
##low
##oe
##oot
##opt
##river
##roles
##section
##secure
##templates
##testutils
##tz
##ummary
##uy
##webapplicationcontext
##xn
abstractfreelist
applyclosure
bumped
cachedatastoreimpl
cep
checkcliexecutable
checksupportedversion
checkversion
classloaders
closedbyinterruptexception
comandline
committers
conftest
consumes
createinstance
delayorexecute
delimited
designation
designer
dictionaries
dofninvokers
doproduce
dos
east
enc
enters
eventloop
execclosure
executemojo
executionenvironment
facets
ffmpeg
foldleft
freeze
gcsfilesystem
getopt
getstring
glibc
gmsjoinleave
gource
ikgi
indentation
indicators
inheritance
instantiationutil
isclientavailable
je
knowledge
launchenhanced
libapr
libapriconv
libaprutil
libeay
libsvnjavahl
mainwithexitcode
nbconvert
ncache
ncqlsh
nlogicalproject
nread
nversion
nwarn
office
organizations
outputflusher
ozonefs
pathutils
physx
preserved
processevent
ptrins
publickeytoken
qtest
queryimpl
quiet
resultstandardscheme
schedulerbase
schedules
school
segfaults
setupcommandline
shading
sig
skeleton
soft
specifications
spinner
ssleay
staged
standards
stdin
street
subr
subsequently
sugar
tcpserver
testcompile
tester
teztask
tortoisesvn
trade
treereaderfactory
velmethodimpl
weak
windowsapps
windowspowershell
wirelesscommon
xff
zetasqlqueryplanner
##advisor
##archive
##begin
##compute
##created
##du
##eap
##eg
##ending
##failedexception
##iner
##ional
##ipe
##marshaller
##modified
##nanos
##notfound
##offsets
##ories
##ount
##over
##partitioning
##pb
##pl
##pot
##realm
##review
##rk
##ruction
##style
##threadpool
##tls
##trait
##utor
##xecutor
##yw
abstractapiservice
adodb
analyzed
annotationrefreshtask
apifutures
assumptions
awaitrunning
beandeserializer
beforeandafterall
bl
bmi
bw
cap
checkclientavailable
combinations
concepts
cons
consolidate
continuefuture
datatransfer
decompress
digging
dio
dont
encodings
eventid
executetask
explode
extendedprice
fk
flinkrunner
functionalities
geographic
getters
grpcexceptioncallable
hgfs
hist
hiveproject
hnd
hoc
hundreds
identifiers
injected
jdbcinterpreter
keepererrorcode
libjemalloc
librdkafka
lite
logicalaggregate
ltr
maintainers
mozilla
mq
nashorn
nbest
nreturns
nrow
nsource
nstruct
observer
outstanding
ozonemanagerprotocolserversidetranslatorpb
parentenv
parses
perdiskmemtableflushwriter
popular
portfolio
porting
prefixes
publishercache
pushing
qual
randommergepolicy
ranking
recordreaderimpl
reduceop
reloaded
repoinit
representing
roughly
ru
sax
serialversionuid
serving
signatures
snap
solrzkclient
splunk
subsystem
synthetic
textarea
unarystreamtofuture
unknownhostexception
unordered
valued
vertx
virtualenv
whilst
workarounds
##bling
##bytearray
##camelcontext
##cmd
##ctl
##destination
##double
##ea
##eam
##elftest
##equal
##erviceimpl
##fill
##gh
##handshake
##headers
##hort
##ibility
##jc
##ka
##locked
##mi
##mod
##ody
##orc
##pipelineoptions
##prop
##props
##requesthandler
##sure
##sync
##tat
##ulated
##umn
##writerimpl
##wx
assessment
autocommit
bk
blah
bootstrapped
bucketid
carbonreader
cglibmethodinvocation
clientlistenerniolistener
clippy
clusterclient
cnd
columnar
continuously
dbname
dr
eccp
editors
faf
failurectx
fdf
filesinkoperator
genericdispatcher
gettask
griddhttxpreparefuture
hiveconf
idnumber
infinity
jruby
launchworkersunlocked
layers
libgtest
licensed
linter
loadlibrary
money
mongodbio
ncve
njunit
nlong
nps
nsupport
numerous
oncommand
ownerid
ownername
patched
plaintext
pluggy
putdatabaserecord
relates
replicator
robot
roundtrip
servercalls
simulator
spin
sslcontext
startcontext
tapplicationexception
tgt
throttle
tied
tolist
unexpectedly
uppercase
waituntilfinish
webservices
windowintofn
wondering
xab
##alue
##arser
##ber
##console
##destroy
##emanticanalyzer
##eration
##err
##helpers
##icon
##inputs
##kran
##mm
##moduledescriptor
##namespace
##note
##ntf
##nv
##ole
##ong
##our
##ows
##rb
##right
##rintf
##sent
##sheet
##ture
##ubscriber
##wordcount
abstractnamespace
abstractqueryexecutor
analyzing
annotatename
ao
appending
arrowbuf
asan
baseservice
becoming
binaryobjectimpl
bitset
boss
bufferedrowiterator
calciteplanneraction
casestatements
chapter
clash
clusterstate
cmc
compareto
concerning
connectivity
consensus
containermanager
converters
databaseaccessor
determines
dinf
dropdowns
ecb
efe
einf
elasticsearchio
et
falls
federatingmanager
folks
gettable
grab
gridcontinuousprocessor
igniteinstancename
ignitesnapshotmanager
interactions
investigated
invocations
isinstance
jax
jdo
jerseyinvocation
jnr
kerb
keyset
libthrift
loggercontext
logmanager
lto
modular
multiplier
ncollecting
ncount
ndirect
nfind
nmessage
nsame
nusage
occurring
openjpa
overload
performancetests
persistencelocationprovider
pmd
preaggregate
pro
programmatically
programmer
pseudo
recommendation
reloptutil
rework
rstudio
schmizz
sd
searchhandler
sensor
sequentially
serviceinvoker
snprintf
socks
solrcloud
sorts
statuscode
streamingkafkaitcase
sysdeps
tctr
tlsv
tony
transportmode
tryproduce
unitcasestatement
withscope
worklog
##bufferpool
##calls
##cer
##conn
##connectionimpl
##docvalues
##ends
##epoch
##extender
##fateoperation
##fixture
##igation
##ilter
##ination
##irect
##lection
##login
##manageradapter
##mon
##nodemanager
##notifier
##ormance
##ove
##owner
##parent
##park
##platform
##pliterator
##principal
##printer
##router
##rror
##rver
##tal
##tokens
##treams
##udf
##using
##utes
##viewer
##word
abstractregionmapput
abstractrelnode
addrs
awareness
bdf
biggest
buffering
cacheclientproxy
cachingclientservertest
cbd
cdecl
certainly
connects
corruptedtreeexception
derivetype
dfile
die
digests
edges
emits
enhancerbyspringcglib
enrolments
entryset
evaluator
exprs
extras
furthermore
fut
getattr
gha
gridclosureprocessor
guessing
hiding
hikari
hiveinputformat
ignitecache
indexsearcher
informative
initialise
inlong
iud
jaxrs
jettison
jobclient
jrn
junitplatform
lexer
lowest
mailinglistcompiler
mkdirs
mojoexecutionexception
nactually
nexamples
ngcc
nhaving
nonfairsync
nprobably
nusers
omit
openid
organization
overlay
parsepage
pointers
powermockjunit
privileged
pst
pulls
qos
readfully
redacted
regiontest
reloading
searched
secured
sightly
signing
sigsegv
solrconfig
sqlquery
testtls
tgrp
thriftcliservice
vvm
wise
writeimpl
xaa
znode
##ater
##buckets
##calc
##che
##city
##classes
##connected
##csv
##dataobject
##decompressor
##div
##dle
##dr
##dump
##ear
##ecurity
##egion
##erge
##essage
##extension
##flag
##groupid
##gt
##hl
##icate
##install
##invoke
##ision
##ives
##jms
##ked
##mutation
##ocal
##ocation
##oji
##partitioner
##print
##reply
##scheme
##ser
##ssl
##tablesink
##tainer
##tes
##throwable
##va
abf
abstractconfigurableasyncserver
abstractrefactoring
acb
acomment
adf
afe
alternate
applyx
aspects
assets
atomicops
awesome
baseprotocol
beanrecipe
bigbluebutton
black
blockreaderfactory
buildagent
completeexceptionally
compliance
constexpr
contentbank
contextlib
dba
declarative
del
depot
dointransaction
downgrade
elif
etl
exn
fcf
fdc
flywaydb
fnonce
fri
funcs
genericcontainer
geo
gradlebuild
gridniofilteradapter
hadoopfilesystem
implementer
intro
ipykernel
jcraft
locales
logfeeder
logviewer
methodinvoker
micro
minus
movenext
ncause
ndouble
ngo
nkey
nremote
nspecifically
nstatic
nv
openejb
privilege
proxies
quorumcnxmanager
raftasynctests
randomwalk
reaches
readerimpl
receivebase
referencequeue
reflector
regressiontest
reltosqlconverter
reviewer
runtimeerror
sed
singa
six
sqlerror
sslhandler
standardnifiservicefacade
synced
synchronously
tablescan
testcorediscovery
testdetails
tidy
turning
uk
versa
workflowexecutor
xmlschema
##bundles
##bus
##cacheimpl
##cause
##chine
##clientservice
##collation
##cores
##customizer
##ementation
##exact
##executiongraph
##headerfilter
##ica
##ields
##imit
##iterable
##jdbc
##lm
##lo
##lude
##luster
##machine
##mation
##ork
##parserimpl
##projectbuilder
##providers
##registration
##stack
##str
##two
##uation
##uffle
##ultiple
##web
##wr
##ytes
abstractnonblockingserver
acquiring
actively
agree
altogether
applinks
appreciated
asl
barrier
bottleneck
brinjal
brokerservice
buggy
bulletin
calciteconnectionimpl
carbonscanrdd
carbontable
cdf
connectionmanager
correspond
cruciblefilter
dbs
decorator
differentiate
digit
documentswriter
drain
drops
eba
enhancements
executebatch
experienced
exploratory
explore
fileio
filepath
flinkyarnsessioncli
flowcontroller
footprint
gatewayfilter
glog
glue
growing
hastop
inconsistencies
inspection
instanceid
iterates
jettyserver
jsonpath
jta
keyedtimerdata
latch
lazily
lineage
logappenderdaemon
loner
matchers
mk
nbuilding
ncontainer
neg
nexecute
nhdfs
nlast
nprocess
ntodo
nwriter
oncomplete
owned
parameterized
parquetdataset
parquetinvalidorcorruptedfileexception
payment
pds
pooled
prefetch
primitives
printstacktrace
recordbatchreader
registers
reldatatype
reljson
remarks
sentence
shellsession
simulate
singleinputgate
snippets
sq
storageapiwritesshardedrecords
suspicious
tcpdiscoverynode
technically
terminating
testdataflowrunner
testminillaplocalclidriver
textio
unblockall
universal
usertours
wsdl
xr
##ale
##algorithm
##asm
##atic
##av
##bigquery
##changes
##columnvector
##comp
##completed
##connectionexception
##ctor
##debug
##eal
##econds
##era
##erializable
##estbase
##ever
##executioncontext
##factor
##factories
##fails
##float
##fx
##gling
##gram
##httprequest
##inary
##insert
##integer
##kg
##mo
##nit
##nodeid
##notes
##notimplementederror
##osition
##preferences
##qa
##required
##return
##revision
##rocessor
##rpcserver
##side
##statistics
##storeimpl
##termination
##tract
##ubscribe
##uous
##urse
##vation
##wise
abstractbytebufallocator
amzn
appname
asn
asyncsupply
avgt
batchingexecutor
bba
bearer
bucketing
buildsrc
buildtools
bytecode
clickhouse
clientconfiguration
clientnamenodeprotocoltranslatorpb
clustername
commonly
compileinternal
concatenate
cow
createpinput
dat
daws
ddltask
delegateaction
dependenciesrenderer
dfsoutputstream
distributedsystem
ebd
equipment
exchangeworker
explained
familiar
fencedakkarpcactor
fetches
filesize
findvalue
getencodedbody
gid
githubusercontent
glyphicon
grpcio
hadoopsecuritycontext
handshaker
hawtio
hdpcore
iana
idempotent
impacted
integrationtests
jsonparser
kahadb
lgtm
maintains
managedchannelorphanwrapper
mdrob
mitigate
mycompany
necho
nfurther
ninterface
njoin
nmain
noexcept
nshow
nsummary
obtaining
onwards
organisation
pain
parquetio
poms
prefixed
redzone
reservedthread
resizablearray
restclusterclient
rewriting
rubric
sanity
scales
scoring
seemed
served
serverruntime
setlookups
spans
standardcontext
stories
subprojects
tax
testmethod
tezsessionstate
theory
toarray
tokenize
tours
tproxy
transactioninterceptor
trustmanagerimpl
txmanagerimpl
txstateproxyimpl
ue
unixnetvconnection
upgradelib
usermanager
vertices
vg
vice
visited
websockets
wunused
xce
xee
##actor
##answer
##applicationcontext
##audit
##bl
##corer
##election
##fraction
##guide
##ho
##hooks
##implementor
##initialization
##introspector
##jobs
##kns
##metastore
##ned
##odb
##oke
##osing
##ower
##plugins
##pn
##prepare
##product
##que
##queues
##rant
##retries
##sb
##sqlexception
##tags
##tc
##zookeeper
acceptor
alternatives
america
amqpconnectioncontext
archived
atlaseye
balanced
belonging
biginteger
canonical
cdcfe
ced
charge
checkpointcoordinator
complains
con
correlation
ctc
dataframewriter
dbt
dhadoop
drpc
encounters
executeupdate
express
expressed
fba
fbe
fetchindex
flagged
followercommit
gearpump
glob
gossip
graphics
griddhtcacheadapter
griffin
helping
idl
igniteindexreader
importance
inconvenient
indexfetcher
jdkmarshaller
jiraactionsupport
june
laptop
mailboxprocessor
mass
mit
monthly
mvnrepository
nbin
ndelete
nextcloud
nfixing
noriginal
notebooks
nprotected
nunable
nworkaround
opentest
parknanos
parquetwriter
percent
precedence
processcontext
proj
pulsar
querycomponent
readr
recreated
refreshing
requirenonnull
resetting
rlang
sampler
schemes
sessionstate
singlethreaded
spacing
stackadvisor
stating
statistic
stdclass
storagecontainermanager
substr
synapse
tbd
tck
tcnative
tok
txnhandler
typefactory
udp
unary
variety
velocityengine
webappclassloader
wget
xcode
zaxxer
##account
##addresses
##amp
##authenticationfilter
##balancer
##bootstrap
##bug
##closedexception
##configs
##cts
##daemon
##defaults
##disk
##done
##eds
##ek
##esults
##gest
##handlermethod
##iations
##ince
##ious
##iss
##ker
##last
##lation
##lush
##marker
##messageconverter
##nstance
##ond
##ordered
##picker
##pply
##protocolprotos
##rade
##references
##release
##rent
##resultiterator
##rift
##rp
##so
##storm
##tatemachine
##ton
##treereader
##ubject
##urs
##vertex
abstracteventexecutor
abstractfailurehandler
abstractreloptplanner
ag
amsize
backoff
baseconstructor
bef
beginblobdownload
blackboard
brackets
breadcrumb
breakpoint
bufferedoutputstream
bypass
clerk
clientservertest
cloned
collision
competency
corp
currentthread
databasecompatibilityenforcerfilter
dcheck
deferred
deserializing
disables
disposition
distutils
dw
ecdsa
efd
evolution
excessive
executestatement
filemanager
fingerprint
flex
floor
followerstate
foreachop
garrow
getchildren
getpath
gitignore
goto
griddhtpartitiontopologyimpl
gridrestprocessor
hddsdatanodeservice
healthy
hivetablescan
hypi
inputiterator
installations
integrity
ioerror
isset
kettle
keyvalue
landing
ldpath
linker
lived
locating
measured
middleware
mmap
mpacks
nativemethod
nbesides
ncreated
ngmake
ninitial
niobyteunsafe
nose
nosuchelementexception
nrequest
nsimilar
objenesis
occurrences
pactivity
plc
predict
referring
requestcontextfilter
resteasy
retention
retrieves
reviewers
rotation
runtests
satisfied
satisfy
segmented
streamtaskstateinitializerimpl
subproject
summarise
tcpdf
timerthread
tpc
traceserver
typedjson
withplanner
xmldocumentfragmentscannerimpl
xms
zookeeperserver
##added
##ade
##agg
##ak
##aneous
##aw
##backup
##bytechannel
##checks
##cheme
##clude
##con
##declaration
##ected
##eet
##equence
##exceptionhandler
##exceptions
##executionlistener
##failurehandler
##hange
##heartbeat
##hread
##iew
##ific
##igned
##imeout
##jars
##keyedstatebackend
##kn
##latch
##lling
##lookupservice
##losed
##my
##nding
##notnull
##ough
##pd
##pressed
##protos
##regressiontest
##reground
##search
##selector
##sio
##streamer
##sy
##tarterrule
##tatic
##threadpoolexecutor
##ti
##transactionmanager
##typeinfo
##und
##vars
##writeprocessor
##year
addindex
alice
asmclassgenerator
association
audio
authenticationfilter
autoupdate
backing
banned
batchtask
bi
blk
blogs
bloomfilter
brand
cacheid
callcurrent
carbonfactdatahandlercolumnar
cdi
charts
checkerframework
cliservicetest
cog
commission
comms
compares
computational
consumerset
coordinates
cos
criterion
customization
dataflowpipelinetranslator
datastorageconfiguration
datetimeformatter
decisions
decommissioning
decouple
decrypt
dfa
discount
distributedupdateprocessor
doubletype
dowork
earliest
efficiency
enhanced
executequeryserviceserver
face
fl
flake
floats
fsdirectory
functionregistry
ge
german
getcontext
getrecordreader
globals
handlerequestbody
headless
hpux
inactivity
installsnapshot
jdbcrequesthandler
keyed
kinit
ktypename
localfsblobstore
luke
mbstate
mdlsite
meantime
mechanisms
moderator
mssql
nare
nbacktrace
nbasically
nbytes
nchanges
nconfig
newline
ngrep
ninstalling
nlibarrow
nlocation
nmod
noop
nreindexing
pasted
perfect
periodic
platformdependent
precise
primitivearray
progressive
propertydescriptor
protocolconverter
rcheck
react
rebuilt
recommends
reliably
reloptrulecall
rerun
runtasks
segmentedraftlogworker
selectors
sequentialcloseable
serverconsumerimpl
servletexception
shortcut
shortname
simplification
sqlfieldsquery
sqlselect
square
stackoverflowerror
standby
stormclusterstateimpl
suppkey
synchronousqueue
tcom
tells
timelineservice
transparent
transports
tuning
ugly
userguide
vertical
viewer
wind
xerial
##aging
##ash
##authenticationhandler
##batches
##beans
##bindings
##certpathvalidator
##cks
##committer
##datainputstream
##deque
##documentdisplayer
##family
##filterfactory
##ga
##gateway
##gg
##ght
##iator
##imistic
##inputprocessor
##lets
##locations
##mergepolicy
##mergerule
##mit
##mock
##mpty
##nded
##nger
##notification
##notify
##objectinputstream
##olation
##oop
##peer
##persister
##ptions
##queryaction
##responsewriter
##restore
##rue
##scope
##sid
##socketfactory
##starter
##ther
##threshold
##uate
##ument
##urls
##verifier
##ww
##za
##zm
##zzle
abstractyarnclusterdescriptor
activemqconnectionfactory
addstep
adopt
afb
apacheignite
approximate
automation
backends
backslash
bbc
bci
bot
bracket
calledprocesserror
cancellabletreepathscanner
caret
ciphersuiteconverter
commitprocessor
connectionfactoryimpl
consecutive
continuum
contributed
createsource
dbb
declaring
defaultartifactresolver
defaultgraphwalker
delegates
delegatinglookupimpl
deny
determining
digester
directtransformexecutor
dofnoutputreceivers
eclipselink
enumerablemergejoin
escaping
eventtable
exporters
extern
extractor
failsafe
fateservice
fed
federated
ffc
fhir
fieldschema
filebasedfs
formed
frog
fspermissionchecker
fulfilled
fv
gbk
gmock
gopath
gridcachettlmanager
hashes
hddsdispatcher
headings
hivecatalog
hoodiewriteclient
hosting
hr
httpservletrequest
hvp
ignoredfailuretypes
importlib
inetsocketaddress
infos
insecure
iterablelike
jac
jiras
jobrunshell
leveraging
ljo
lm
loginfilter
lsb
mahout
mapoperator
maprecord
maptask
measurement
median
methodinvocationproceedingjoinpoint
movetask
myriad
mytime
ncannot
ndetails
networkenvironment
newvalue
ninvalid
nlike
nnull
nodeinfo
notices
notimplemented
nquestion
nrecordtype
nsuggested
osgiinstallerimpl
ought
outputprocessor
ozonemanagerrequesthandler
pagelib
pedantic
picking
pkgconfig
pme
pogometamethodsite
postofficeimpl
powerful
priorityqueue
privileges
pty
pubsubintegrationtest
reef
refs
resourcejavamethoddispatcher
rh
rmiconnectionimpl
roots
scopes
secrets
secureclassloader
sekikn
setuplib
setvalue
sheet
sqltooperationconverter
sqltransform
stand
standardprocessortestrunner
styleguide
taskcontextimpl
taskmanagerrunner
testutils
testxmlreader
tiostreamtransport
tombstone
tovoidkey
tumble
typeserializerserializationutil
updatecarbontabletestcase
varbinary
vectorizedcarbonrecordreader
vertexname
vintagetestengine
watches
webhdfs
webhome
whl
##ather
##attempts
##bject
##bly
##button
##changelistener
##classname
##codegenerator
##conduit
##configurer
##delivery
##den
##dit
##ene
##epository
##etary
##executorimpl
##facetcounts
##fail
##grade
##helperimpl
##hen
##hostname
##hot
##hrow
##indexwriter
##ingfilter
##isk
##jax
##kb
##king
##lies
##loading
##losure
##nic
##nter
##nu
##otable
##processing
##ral
##ram
##reate
##rer
##scorer
##sm
##src
##suite
##supplier
##this
##tostring
##typeutil
##vd
##withtimeout
##yer
abstractshirofilter
actionable
anchor
apitools
asks
associate
bench
buffersize
carbonwriter
ccf
cdh
cfec
clientconsumerimpl
clinic
clusterstartuprule
cms
completionexception
completionhandler
configset
connectionstate
cont
cook
cuser
cwwehlmu
datafilemanager
dea
degradation
deptname
dictionaryarray
directbytebuffer
doput
efa
ethread
europe
ev
eventthread
evicted
exceptiontranslationfilter
expanding
experiencing
explaining
fat
fileupload
fmessage
focused
functionoptions
getorcreatecache
gfjjtn
gi
hiveclientimpl
hq
identities
ignitespithread
jvmrun
keyspaces
kibana
lczc
localfilesystem
mails
naive
nbm
netbeansprojects
nfail
nifiregistryflowmapper
normalized
nregards
nsuccessfully
ntask
numerical
outbound
pageslist
parsequery
pay
penalty
percentile
queryprocessor
rake
recipients
reindex
relmdexpressionlineage
respected
rvb
rwtest
samzacontainer
servicename
shapely
shi
snowflake
sortdata
spend
spnpbnhqqw
sqltorelconvertertest
stockout
streamprocessor
talledlocalcontainer
testng
transformed
txns
underneath
unwind
uris
vectorization
verifier
webmvc
wh
xenial
xif
##acking
##advice
##arg
##buffers
##buildactionexecuter
##builders
##cable
##cap
##cmp
##commanddunittest
##contents
##definitions
##duce
##dx
##ecret
##empty
##ensive
##ept
##eta
##export
##exporterspi
##fi
##hare
##hive
##ially
##ifi
##ifneeded
##ift
##ii
##inc
##indexes
##interceptorchain
##inviewfilter
##iteratoradapter
##jo
##ky
##latency
##live
##mand
##maps
##maven
##metamethodsite
##modifiercheck
##nate
##nav
##ndex
##new
##nifi
##notebookrepo
##nse
##olmis
##pickle
##qlexception
##qual
##question
##rait
##readwritelock
##res
##retry
##returntype
##ributed
##sg
##td
##tmp
##trigger
##urator
##urity
##vers
##xx
##zo
aad
aba
abfs
abstractiterator
abstractupgradecatalog
advice
afc
altered
analyzers
announcement
antrun
appearing
appenders
aspectjaroundadvice
attacker
awaiting
backgroundwork
bae
basedir
bastienboutonnet
bers
binaryobject
boundedthreadpool
brief
builddir
carbondatasourcehadooprelation
catches
channelsid
charges
classcodevisitorsupport
classgraph
compressingfilter
confuse
contextlevel
databasedescriptor
debuginfo
decides
derivetypevisitor
disallow
dname
docvalues
dots
evaluates
eventsystem
executesql
exprnodeevaluator
fbd
fdd
fieldnames
filenames
filesystemdataset
flux
foobar
fq
freed
gamepointid
getattribute
getfile
goenka
granularity
gridniofilterchain
halfclosed
handlerpcmessage
hides
hivefilter
hostnames
httpmethodrule
httpservletresponse
infinitydb
ingestion
inheritdoc
invokehttpmethod
kernelcontext
kh
launchtask
libjvm
libzstd
linagora
linkedlist
logappendentries
mapchildren
merges
metaclass
nboolean
ncassandra
nchanging
networklocation
nfunction
njetty
nmay
npart
nproposal
nreference
nstatus
nullpointer
ny
oauthfilter
ord
overwriting
paid
perforce
phases
presently
primarily
prm
processconnection
pvr
pypoetry
qbank
qry
querystatementconverter
quizzes
rawtypes
recompile
recoverymanager
recycle
relmetadataquery
repldumptask
requiredcolumns
resourceclassrule
rhs
rmuir
rootresourceclassesrule
rspm
rtl
runnerdelegateimpl
runsequential
scrollbar
semantichighlighterbase
serves
sid
sockettimeoutexception
somebody
spot
sqlscriptrunner
sqltypename
sslhandshakeexception
staff
streamtableenvironment
talking
taskrescheduleinfo
testfile
tidyverse
tolowercase
tpcds
truncating
tutorials
unhealthy
unreachable
unusable
usertaskaction
validators
vertexid
vintage
west
zephyr
##accessexception
##ach
##andget
##ars
##assert
##blas
##blocking
##cion
##clean
##doublebuffer
##dp
##eral
##esource
##executionstrategy
##fg
##finally
##ien
##ifchanged
##imer
##imple
##inate
##internals
##ished
##lrucache
##managerfactory
##memoryinmb
##mergesize
##messagetest
##mr
##ndon
##olve
##orload
##owing
##plication
##points
##queryimpl
##quet
##rase
##rocess
##segment
##socketchannelimpl
##statebackend
##stringbuilder
##transactions
##transformation
##transposerule
##uant
##uffer
##upgradetool
##withgrpc
##wn
abs
abstractlogger
acegisecurity
agreement
allocates
applicationmaster
arrowinvalid
assertfalse
assignable
backported
beancreationexception
begins
benchmarking
boilerplate
callmainmethod
cctx
channelsession
checkstate
cj
codedoutputstream
comfort
commandstore
compound
computer
conjunction
connectionqueryservicesimpl
controlrunnable
coordination
countwords
covering
crates
ctl
dangerous
dataserializer
datastructures
david
dbc
dbmigrate
dcd
defaultsingletonbeanregistry
designs
dte
ducktests
ecd
ede
eee
enumerabletablescan
enums
envelope
estimates
estimation
eventstorage
executeasync
executependingtasks
fair
favourite
fde
feels
fieldserializer
figured
fileid
finalized
findbestexp
focal
functioning
genericcli
getparent
getschema
grained
grpcclientprotocolclient
grpid
guardrail
guidance
halting
hnsw
htm
hung
identifying
incorporate
inode
insertion
intentional
internode
isnull
ix
jcache
jcqueue
jobhistory
kszucs
land
largest
libpython
lies
literals
logfile
loggers
maxmind
messenger
metadatalist
mgt
mismatched
mocks
modulemanager
multiset
nature
newthread
nfilter
nopen
nstr
nupgrading
offered
openapi
operatorchain
ozoneclientfactory
pdfexportimpl
picocontainer
practical
provisioning
raising
rangerbaseplugin
ray
readlock
reality
refui
reprex
responsive
runit
scorer
securitymanager
sendmessage
separation
servicejspfile
ses
shadow
simpledateformat
snyk
socketexception
sortdatarows
statsutils
streamexecution
strongly
supervision
taskid
testbody
thank
thr
tolerance
trafodion
transformto
tsasltransport
tservers
tsocket
tweak
typeinformation
uncheckedexecutionexception
unicompose
unpacked
unverified
violates
vision
wcodecvt
webdav
wsl
##acc
##afe
##aggregator
##als
##assignment
##atically
##aused
##batchreader
##cell
##channelactive
##codes
##coding
##color
##compaction
##dataformat
##ei
##email
##ernal
##eventhandler
##fit
##full
##handlertest
##inst
##iving
##joinoperator
##ken
##latform
##lity
##lled
##logic
##lu
##metaclass
##mple
##nan
##objectinspector
##onnect
##oration
##pr
##ption
##ret
##rid
##sec
##servletfilter
##sets
##sion
##sqldialect
##storagehandler
##supported
##targets
##tokenmanager
##torm
##transition
##treamreader
##txn
##ubpartition
##ulating
##unch
##unk
##validation
##wa
##wf
##workflow
##written
##xer
##xp
absl
acceleratorbindingimpl
accum
adb
ade
aforementioned
allloaders
analysisexception
anycast
attrs
bachelor
badgr
batchsize
bca
bdd
bee
bfc
bigtablereader
bionic
callablecondition
certpath
certserialid
circular
classbodyevaluator
classloading
clipboardhandler
closurecleaner
comparable
contributions
converttocomponent
createpardooperation
cumbersome
daf
decimaltype
defaultprocessobjectsfinal
descriptive
distributedcacheoperation
divide
dmaven
dointercept
eeb
elementhandle
engineering
ensurebufferlength
evalcode
executeaction
fef
filescanrdd
filesystemlinkresolver
finder
finishconnect
finishing
flattened
forceflush
freq
gaps
generatediteratorforcodegenstage
getactionimpl
getmenucount
getsplits
gray
grey
hivesqlexception
honor
idforfile
igniteclient
indexschema
influxdbexception
inplace
inspector
installui
instantiating
inv
invokejoinpointusingreflection
isclient
keyoutputstream
killing
lightweight
localdate
locality
logoutfilter
losing
love
mailets
marshallercontextimpl
matlab
microprofile
mybeforelookup
nartemis
nconfiguration
ncp
ndatanode
nfunc
nhence
nhi
nick
nifiauthenticationfilter
nindirect
ninternal
niossltransport
nlogs
nmoreover
nnthroughputbenchmark
nosuchfileexception
ntested
ntrue
occured
onmessagereceived
opp
orchestrator
orderedgrouped
parmultido
parquetvaluewriters
plannerbase
pong
pragma
programid
proxied
rangerrestutils
rap
readlongs
recall
reconfigure
redshift
renderfromskin
repaintmanager
repr
resolvemime
resourceid
rmk
roleinfo
runcommand
sanitizer
savepoints
sebastian
selectnamespace
sessionmanagementfilter
sesskey
setaccelerator
setheader
shipmode
slight
smtpserver
solving
sparksqldriver
sqlfunctions
ssn
startdate
startmultiscan
streamtasknetworkinput
streamwriter
tablefunc
tabletlocatorimpl
tcpclientchannel
testorcfile
threadid
timecreated
timezones
tld
tlr
tprotocolexception
treats
undo
uniform
unkey
upd
validationexception
vectorizedvertexnum
velocimacroproxy
visualization
webdriver
webhcat
weld
windowspathparser
workloads
xea
xxxxx
##accept
##artifacts
##bot
##ced
##clientrequest
##clusterentrypoint
##come
##documentscannerimpl
##eded
##efinition
##ena
##enger
##erence
##esc
##executionenvironment
##fault
##filestatus
##filesystemprovider
##follower
##foo
##gf
##hip
##ialized
##iary
##ina
##kc
##label
##lication
##limiter
##locks
##members
##mpl
##ni
##nonblockingserver
##oi
##ormat
##orter
##permissions
##pose
##recordsetwriter
##regions
##req
##restarttest
##rev
##rial
##ron
##room
##score
##screen
##sd
##send
##servercalllistener
##servicegrpc
##sftp
##solrclient
##standard
##strings
##tablet
##testsuite
##tly
##tracing
##trees
##ues
##uv
##vectors
##wc
##zk
##zxid
##zy
abstractdfscarbonfile
activemqconnection
aea
aid
alpine
appid
arrjson
asset
autosave
bac
backendrestorerprocedure
beamsql
bio
ble
bytesref
cacheclientnotifier
catalogs
catching
ccmlib
cdata
checknotnull
codahale
colocated
columnname
complain
cycles
dataload
datastoregemfire
dcc
deals
decorators
defect
deprecations
descending
directoryreader
displayname
distributionadvisor
dlockservice
dumping
ebc
edb
eec
endif
exceptionininitializererror
expectationexception
experiments
fac
fffef
ffffff
filearea
filechannel
fixture
flighttests
fnapi
fxp
gave
generateflowfile
genericrecord
geospatial
getall
gmslocator
gps
gridcachedatastore
gridcachesharedttlcleanupmanager
gridcacheutils
griddhtpartitiondemander
hadoopthriftauthbridge
handleexception
handlemessages
handy
hpl
htrace
huawei
im
immutablebeans
immutablelist
intorder
involving
itssltest
jceks
knoxshelltable
leaderid
libexec
libsystem
locatorlauncher
logservice
lrublockcache
measures
memberships
memtablepostflush
misaligned
mrappmaster
multiprocessing
nmove
notherwise
nrelevant
nresource
nstored
nstorm
nvalueerror
nwas
nwhy
officially
orderby
overlapping
parkandcheckinterrupt
phpmailer
prompted
proxyinvocationhandler
ptf
pvalueish
quantile
reconnected
reminder
renew
repeatable
resp
rsp
runquery
securitycontextholderawarerequestfilter
securitycontextpersistencefilter
selectstatement
servicecall
shardreaderspool
sides
simulation
singletonlist
sni
solaris
sometime
spannerio
sqlclient
sqlidentifier
squareup
standardcharsets
standardconvertlettable
standardflowconfigurationdao
strlen
strutf
subscribed
substitute
surface
suspend
synchronizers
syslog
tablesource
tagging
tapestry
testclidriver
titles
tmatesoft
topo
transferring
translatetoioexception
traversal
traverse
trustedapps
tuckey
ucxserverimpl
unauthenticated
underscore
uniformrandomprovider
unregister
urlrewrite
vcs
vectormapoperator
viewlog
visiting
websvc
windowedvalue
workdir
wwwroot
wysiwyg
xlang
ycsb
##activation
##adaptor
##aft
##anize
##atency
##attempt
##aws
##browser
##checkedexception
##chmark
##collect
##committed
##compatibility
##containermanager
##covered
##dialect
##display
##distribution
##eater
##enchmark
##eport
##ersion
##erts
##facade
##fileobject
##finished
##fire
##fu
##functionexecutor
##hashset
##hed
##hift
##iable
##ication
##idence
##igner
##ingleton
##initialized
##inspector
##jq
##leadership
##leanup
##lex
##linux
##loud
##metricsmxbeanimpl
##olor
##oncomplete
##opened
##phase
##pubsub
##pute
##qparser
##querymechanism
##rator
##serverconnection
##sessionmanager
##sk
##socketchannel
##tall
##taskaction
##tateimpl
##ters
##trings
##tub
##ud
##une
##unittest
##validate
##valueholder
##vf
##ways
##witch
##yb
##zi
abstractactor
abstracthttpconnection
abstractinactivitymonitor
abstractregionmap
abstractresourcemethoddispatchprovider
acts
adobe
appreciate
asap
aside
attributeerror
behalf
binaryobjectexception
binaryrow
bm
bootstraptools
bundleimpl
bypassmergesortshufflewriter
caa
cachedmethod
canceling
cant
claims
clientservice
clusterid
cmg
cognitive
coll
commandlinetools
concatenation
concurrentmergescheduler
configurationregistry
containerid
convertrecord
corelib
cryptography
csl
ctas
cygwin
dashboards
dce
declares
decryption
defaultlaunchersession
destroying
discarding
discport
dispatcherutils
dmlreadexception
docid
elasticsearchpersistenceserviceimpl
eligible
exceptioncaught
extradata
ffe
fingerprintfactory
finishbundle
flakiness
flushes
french
fsync
gender
graceful
gridcachequerymanager
gridcommonabstracttest
grizzly
grows
gyp
hiveconnection
increments
indexedseqoptimized
inputstreamreader
interruptflag
javamethodinvokerfactory
jgss
journalimpl
jsontable
jstack
knoxsso
lastexchangetime
libpthread
loan
localregiondataview
loglevel
materialize
mess
miniyarncluster
mixedcontent
mlbackend
modinfolib
mrreadermapred
mutextransport
namenodes
nans
nconfigure
ndescription
neo
ngeode
ninstances
nioeventloopgroup
nmaven
nmax
nmethod
noptions
notfoundexception
notifier
nrecon
nservice
nstatement
nth
nu
nzookeeper
openqa
opensession
overseer
packed
panels
parallelize
parsedriver
partitionreplicalistener
persists
pinned
preferable
prestosql
processresources
programinvocationexception
pylint
quo
recovering
reg
relating
requesthandler
roadmap
rpcclient
runsecured
scalarfunction
scalars
scannode
schemalocation
scmcli
serializationutilities
serveraction
serversocketadaptor
shuts
singletonconsumerset
sockaddrs
socketoutputstream
sounds
startbundle
stash
staticimportvisitor
stax
stc
stick
storages
stringindexoutofboundsexception
stripped
strm
submits
substitutionvisitor
surprising
tablescanoperator
telling
testutil
tezclient
thousand
tidyselect
timemodified
trial
txnid
typechecked
umbrella
updater
viewfs
vpc
waste
wcast
webpack
xargs
xylophone
##batcher
##bj
##bm
##boundedsource
##byid
##consumers
##controllerservice
##deletes
##dictionary
##dly
##eat
##edmergepolicy
##ener
##extensionpoint
##fy
##gent
##groupservice
##hand
##hat
##hutdown
##ingiterator
##inputgate
##istry
##izations
##ln
##loaders
##menu
##metadataprovider
##mx
##nappy
##oice
##olving
##ora
##pf
##pm
##postprocessor
##promise
##querycreator
##rating
##regionobserver
##requestid
##rowid
##self
##semanticanalyzer
##sequence
##serverit
##shed
##span
##stics
##tation
##tracer
##ttest
##ubscription
##uf
##upervisor
##uration
##urn
##vernumber
##xr
##zero
aab
absolutely
achilles
acknowledge
adaptive
addall
aeb
aggregator
analyser
arrives
aspect
attack
az
band
batching
bbe
beamfncontrolclient
binarytuple
bookmarks
cachedatarowadapter
campaign
carbontableinputformat
cca
cef
cfc
continued
coordinate
coprocessor
credits
crowdauth
cursors
dataproc
dcf
dda
deactivate
decodenaivefrombytes
decodenaivefromlongs
decodesimd
deltastreamer
deviceinformationid
dfb
dmlstatementsprocessor
dockerhub
dog
enqueuing
exclusivetask
executecollect
explains
expressionwriter
fasynchronous
ffb
filterchain
fmtflags
fo
foodmart
futureimpl
gdpr
glance
graded
gridtimeoutprocessor
heavily
horde
implied
inputformat
integrations
invokechannelinactive
jmstemplate
jsdoc
kafkaserver
kylin
lacking
largely
launches
led
libcrypto
libgobject
licensing
mainclass
mainclientexec
mgmt
micros
microseconds
mtcars
nacc
ncollect
ngroovy
nightlysnapshot
nlateral
noise
noticeable
nrelease
nrename
nresponse
nsecond
ntarget
nunknown
nupgrade
nyarn
oci
oid
optimizedmarshaller
ora
orphaned
ozonemanagerprotocolclientsidetranslatorpb
packit
paginated
partitioner
patients
perelement
perfkitbenchmarker
permanently
picks
pipelined
pivotal
plainsocketimpl
positives
postoffice
processlocalcmd
processrow
proctime
pydata
quanlong
rbac
redesign
reduceexpressionsrule
redundancy
replicates
responsibility
restrictive
rg
runthread
safemode
satisfies
sendasync
sensible
servletutils
sftptransfer
shorter
simplethreadpool
sourcestreamtask
sponsored
sqlcomplianceserviceimpl
sqlserver
sqlstdoperatortable
startlocator
substitution
surrounding
tcompactprotocol
threadgroup
unknownfile
updateattribute
valuable
variance
vary
vi
videos
visitcall
voted
voting
webadmin
wstx
xbean
xwikidocument
##actionexecutor
##alloc
##ann
##append
##artifact
##beandefinitionreader
##bler
##bounds
##classdeclaration
##co
##conditions
##connectexception
##dataoutputstream
##datumreader
##dex
##each
##edevent
##elresolver
##encodeddatareader
##etup
##eventimpl
##eventqueue
##expander
##futureimpl
##gm
##gue
##ialization
##iance
##ick
##inputref
##interpreterprocess
##ism
##ivation
##lists
##logindex
##ltung
##matches
##messageconsumer
##missing
##mocked
##nh
##ntial
##oader
##processgroup
##proxyimpl
##qe
##querymanager
##queryresultiterator
##queued
##raction
##rand
##rangequery
##ranges
##regionqueue
##retrievalservice
##ript
##rmanager
##securityexception
##shandler
##split
##stat
##statemachine
##streamreader
##tableimpl
##tates
##testsupport
##thing
##tmt
##trusted
##ugh
##uisition
##uit
##unchecked
##warnings
##weaver
##wm
##yf
##ypes
aborts
absence
abstractjdbc
abstractresourceprovider
aca
accesses
acknowledged
adapters
additions
addressing
adjusting
aggdesigner
aliasing
alphabetical
announce
appendlogresponsehandler
armv
assignfeedback
bbf
bcb
bda
bdziedzic
bed
binaryreflectiveserializerinternal
bold
brooklyn
buildpackage
bundling
cacheexception
capacityscheduler
careful
cdb
cea
certification
challenge
checkargument
ciphers
clientnamenodeprotocol
cold
compilerservices
conclusion
configutils
constructs
contextfinder
continuing
cqlshlib
createstatement
crlf
cronlib
culprit
daemoncommandexecution
databaseaccess
datamaps
datastreamerimpl
datawriterprocessorstepimpl
dde
defaultactionproxy
defaultreviewservice
denominator
deserializationcontext
destdir
dfc
directed
directupdatehandler
discoveryworker
djdk
dropbox
dry
dunitlauncher
duplicating
edf
elfnqw
empname
enddate
evp
exprnodegenericfuncevaluator
faced
favorite
fcb
fea
fetcherorderedgrouped
filebasedsink
findings
findpackagehandlestandardargs
firewall
firstly
gettopkey
gogradle
gridnearatomicabstractupdatefuture
highavailability
ignitetest
influxdata
influxdbioit
initialisation
inverse
jcenter
johnsonfilter
jsonfield
junitcorewrapper
junittestclassprocessor
jvmpausemonitor
knoxtoken
labeled
leaking
lengths
levora
lf
libglog
manipulation
mary
meanwhile
memcheck
merger
metricssystemimpl
migrations
millions
msse
mvpartitionstorage
nalternatively
narrowinvalid
navigationlib
nbjavac
ncheers
nclick
ncommit
ndataset
newcontextexception
newmedialab
newstate
ninput
nmetadata
nonlocal
notfound
nq
nreproduction
nruntime
nsimilarly
nstage
nthose
nums
nw
nxargs
ofrows
openstacklocal
opposite
outcomes
paged
parametercontextresource
perkey
pickled
playing
poolarena
preg
prematurely
projectinfo
propertyconfigurator
providertointernalfactoryadapter
psql
pubsubmessage
pushrecord
pytz
readline
recordings
recordwriter
redirection
relwritertest
renderers
restful
reusing
revealed
reverting
rounded
runpy
rununtilshutdown
scalatestrunner
sdkfilterinputstream
seemingly
semanticexception
setname
setups
shipdate
signals
sisu
slowness
sourceforge
sparkyarnappspec
spotted
sqlfunction
statefun
statemachinefactory
streamencoder
streamingfilesink
stripeconcurrentqueue
subscribers
subtract
tcpipclientchannel
tempfile
testclass
timeoutms
tmpfile
tordd
translating
trimmed
tsiservice
tsserviceimpl
tsystem
typecache
unicast
uninstall
unsuccessful
upfrontfilter
verifies
visor
wagonrepositoryconnector
wd
withaction
withschema
xnio
youtube
yyy
zeros
##affinity
##analysis
##annotation
##arse
##batchsize
##bie
##bilities
##buffersize
##cacheentry
##clientfactory
##clientprovider
##configurationstorage
##contexts
##creds
##datanode
##directive
##discovery
##dv
##eer
##endant
##eof
##eplugin
##epro
##essor
##ez
##fstream
##fut
##gable
##highlighter
##histogram
##huffle
##iant
##igest
##imageparser
##inator
##ingcontext
##into
##iteratorimpl
##iterators
##je
##keyevent
##lease
##loads
##loginmodule
##lus
##managementservice
##mem
##messagereceived
##messagesize
##metainfo
##mirror
##mouseevent
##ndar
##nge
##nputstream
##nx
##oauth
##oint
##ojo
##omething
##onf
##ook
##ord
##ored
##ote
##parse
##perf
##phi
##plus
##protocolserver
##ranch
##rates
##released
##remove
##repositoryscanner
##retriever
##rg
##rian
##rok
##rowtype
##rty
##servicetest
##sis
##statehandler
##tablescan
##testing
##tid
##tils
##trou
##true
##txid
##typeid
##ubgraphbasedoptimizer
##ucted
##uction
##ules
##urlconnection
##urlcontext
##utter
##valid
##violationexception
##wagon
##xist
##ye
abstractop
abstracttracked
accumulate
acked
acme
adoptopenjdk
advise
al
amb
anonymousauthenticationfilter
applyjavanature
asynccallback
attacks
authority
bandwidth
bare
basics
binlogtest
cac
cae
calculates
callextensionpoint
carbonrdd
carried
cascade
castle
cbe
characterencodingfilter
chose
circuit
clob
cocoa
computes
concerned
contextenvironment
costly
crazy
dartifactid
dbf
decommissioned
defaultgroovymethods
department
depts
destructor
dfd
dgroupid
dialogs
disappeared
dofnoperator
dpkg
eac
eliminated
embedding
examine
exceeding
execsql
executorservice
failonwarning
fec
fi
filereaderimpl
flatlaf
fluo
fold
forpath
funwind
fw
getcomponentinstance
getexecutionenvironment
grace
gridnearatomicsingleupdatefuture
gridserviceprocessor
guardrails
hepinstruction
hsqldb
htl
incompatibility
indexof
infill
initialcontext
interactivesession
interpretersetting
ja
janhoy
jdt
kafkaspoutconfig
katas
kits
knoxshell
lat
letting
libboost
linkage
listsftp
loses
mainimpl
maxsize
mbeans
memcached
mmapdirectory
mnet
mounted
multiply
natively
ncourse
ndoes
nfurthermore
nimpl
nonetype
notably
npreviously
nref
nruntimeerror
ntrying
nvarchar
objectinspector
observers
ofbizserviceconfigstore
onreceive
oplog
optimise
outputpath
packing
paho
pivot
precompiled
principals
printer
printstream
processsocket
projectjointransposerule
pulse
pushdown
pylist
pythonhosted
qr
queryoperationconverter
receivemessage
referred
reflections
rejects
reportget
resultpartition
roleid
ruleexecutor
scheduleaction
segmentedraftlog
serviceprovider
shufflehandler
silent
simpleinvoker
sparkrunner
specialization
stacktraces
stringr
stripmargin
ta
tableenvironmentimpl
tablepath
tableprovider
tcmd
technique
tencent
testcases
testtimedoutexception
thriftscanner
thttp
triangle
tune
ubsan
understood
usize
valueprovider
vectorselectoperator
watchers
wave
weekly
xref
##adapterfactory
##aking
##apitest
##argument
##arn
##asyncrenderer
##asyncrendererexecutor
##aversable
##bed
##bo
##bytebuffer
##calculator
##cm
##commandsdunittest
##configured
##containers
##controllerimpl
##current
##cv
##deploymentmanager
##deserialize
##emory
##erce
##essionid
##estimator
##ete
##executors
##fileappender
##gatewaysendereventprocessor
##gence
##grids
##handshaker
##hards
##help
##hiro
##hk
##iating
##icated
##inbytes
##inference
##ingmessage
##ingtask
##ird
##ises
##itch
##itize
##itr
##lag
##lc
##lement
##llback
##loopjoin
##manual
##mary
##messageid
##mos
##nabled
##nel
##ngle
##obe
##ocator
##oller
##onsumer
##optrulestest
##oting
##oud
##packages
##queryservice
##ratis
##requestexception
##route
##routine
##sasync
##scalar
##searcher
##signature
##startup
##tatemachinedata
##traitset
##truststore
##typeadapterfactory
##uantity
##uity
##xs
abnormal
abortstage
abstractgoogleclientrequest
abstractmaterializedviewtest
abstractudfstreamoperator
accesslogvalve
acd
activator
anders
ann
ap
apparent
arraycopy
august
autobrew
banner
batchno
bigqueryservicesimpl
bigqueryutils
bill
blockstatement
bnd
bringing
bumping
bundlehookbundletracker
bwalker
caffcd
calciteutils
calendars
cbdff
channelimpl
clientzookeeper
coderutils
collectjarinfos
colon
componentmanager
compositeservice
consequently
consolefull
consolescript
correlated
courseformat
createsession
credit
cuamba
cyl
dataframes
datatypeextractortest
dbe
dcadmin
defaulticonbutton
delegatingsubject
deltas
devops
disks
distributedtestcase
dlq
documentcontentdisplayer
dolookup
errorcode
evict
executelistener
executeobject
exercise
expressionfactoryimpl
fffd
filepagestoremanager
fin
fraugster
gcsio
genericdata
getsession
getstandardmanagedauthorizer
gettingstarted
getuser
grails
gridaffinityassignmentcache
gridcachecontext
griddeploymentcommunication
griddhtgetsinglefuture
gridpartitionedsinglegetfuture
grooming
handletasksetfailed
heprelvertex
historyserver
hostcomponentresourceprovider
htmlpurifier
hypothesis
ignitefutureimpl
implementor
inbound
inclusive
indexstore
intend
intensive
interop
invokerhelper
itcliservicetest
itemtype
jdbctest
jmod
jn
jobexecutionexception
jobmanagerrunner
journalnode
jsf
jsoup
july
kcvy
kerberized
kiwi
landed
larrow
latedatadroppingdofnrunner
latestvalue
layouts
linearseqoptimized
listenhttp
litmus
loginexception
loginfo
logos
markdownextra
masking
masters
messageformatter
metricregistry
natives
nbtestcase
nbug
ndemo
nfeb
nkms
nmkdir
noarch
nobviously
nopt
noption
nstd
nvalue
observation
oldcore
opentelemetry
operational
orderid
originalserverconnection
outlined
pagecontextimpl
parquetfile
pathcompiler
paxos
pio
pixels
plenty
processbundlehandler
productinfofilter
psqlexception
pw
pyxis
queryserver
quorumpeermain
randomaccessfile
readclassdesc
readnonproxydesc
realize
realtime
recalculate
recordio
reducefncontextfactory
reducerecordprocessor
rejection
relax
relocation
remoteinterpreterserver
repeatedtimer
requestcacheawarefilter
responseoutinvoker
resttemplate
rethrow
runusertask
sasltransportplugin
scio
sds
searchmodeexample
serversocketchannelimpl
serverstate
servletrequest
servletresponse
setsafe
shipinstruct
simpleapplicationeventmulticaster
simpleinstantiationstrategy
siteroot
slim
sockssocketimpl
solrclientnodestateprovider
solrmetricmanager
sorter
speaking
spock
spread
sqlprocessor
sqltypefactoryimpl
sslfactory
standardpipeline
starvation
stoppableexecutorimpl
streamdecoder
streamtaskactionexecutor
striped
subcommand
submittopology
subsys
suggesting
summarize
sunpro
svnthrottledclient
systemreducefn
tablelib
tap
testprojector
thrifttest
tpch
tradeitem
tsuppressed
typ
varint
vectorschemaroot
wegner
wrapthreadloader
xxxxxx
yesterday
##abstracttest
##ality
##allocation
##ape
##arrays
##asyncinternal
##backups
##caller
##callexpression
##chooser
##cies
##clientexception
##controllerserviceinvocationhandler
##convert
##courses
##deleted
##dic
##documentcomparator
##eak
##ecuritymanager
##emp
##encoding
##eplace
##erm
##erverimpl
##erving
##expired
##filemanager
##flight
##flowfile
##folders
##fromjson
##fuser
##gn
##groovy
##hase
##hbase
##heck
##heet
##hints
##hmzkint
##httpresponse
##ialize
##ignore
##ike
##implemented
##inboundhandler
##inkoperator
##ino
##intransaction
##ips
##isit
##itution
##lated
##latitude
##ldr
##lockmanager
##loss
##mann
##mate
##minal
##mutations
##nio
##ommand
##orate
##pageid
##press
##qq
##raph
##registered
##rew
##rion
##rsing
##sa
##schematool
##sity
##sn
##sor
##sstring
##tarter
##tatebackend
##terms
##testmethod
##tions
##topver
##totime
##truct
##tting
##ttr
##typefactory
##ugo
##ustom
##utilstest
##vo
##works
##writers
##xa
##ython
abstractniounsafe
actionqueue
activemqchannelhandler
addtestsuite
agnostic
arraylistspliterator
assumetimezoneoptions
autoconfigure
automate
badapples
bce
ben
bigreal
blockmanagement
boards
boltexecutor
bt
bufferpool
bullet
bulletins
bytearray
cacheobjectbinaryprocessorimpl
calculatorservice
carboninputformat
cfd
changesets
channelsocket
clarity
cleartxlockingdunittest
clientsessionfactoryimpl
cloudsolrclient
combining
commodity
commonpool
comply
composum
conditiontimeoutexception
contacts
containskey
convertquery
cookbook
cout
createcache
createresources
crud
crunch
csi
custkey
daemons
dagschedulereventprocessloop
datadir
dcapwell
ddf
destinations
dh
dlopen
dtestcase
dversion
eae
eggs
ejb
employees
endings
everytime
executionfailed
exponential
fastclassbyspringcglib
favicon
fits
flightclient
formal
forwardingservercalllistener
fsdataoutputstream
gautham
genericobjectpool
gethostname
getvar
goodbye
gridreducequeryexecutor
gstring
hashaggregate
hdr
hopserver
hostedtoolcache
house
hovering
hql
hundred
ignitetablescan
importerror
indexquery
inspecting
invokeinternal
ips
iris
irrelevant
ist
javacompiler
jhyde
jinja
jl
jumps
jumptoapplicationthreadserverstreamlistener
keycloak
knn
kt
launchtasks
lengthprefixcoder
liststatus
localcluster
localmanualcache
lp
malicious
memorymanager
mergecontent
minio
mocking
mono
moodleform
mylyn
namedthreadfactory
nano
nant
narr
newcarbondataloadrdd
nold
noptional
notebookserver
notion
nphpunit
npipeline
nreproduce
nsometimes
nstandard
nunder
nupon
nweb
nwebsvc
octet
october
onhalfclose
opensearch
parsecontext
perftest
persons
plane
pnznvlzk
posting
prevented
proceeding
producers
prov
ptransforms
raftserverconfigkeys
rakelib
rarely
receiptdate
recordset
refcountcache
requestmappinghandleradapter
reveals
revoke
rtools
runoffedtimpl
sch
schematool
segmentid
semaphore
september
serverlocatorimpl
singleview
smartsense
sold
sparkexception
specificdata
statictypecheckingsupport
subdirectory
supervisors
surely
tackle
testwatch
tom
treeindex
troubleshoot
tstring
ty
unixtime
unmanaged
unspecified
vaccine
versionedflowsynchronizer
vert
vmprovider
wai
watching
xafa
xaft
xwikiaction
yarnchild
##align
##alization
##ark
##arraylist
##aspect
##boundobserver
##buildtask
##bz
##carbon
##catch
##clientconnection
##commands
##connectionmanager
##cost
##datum
##decode
##detail
##distributedsystem
##egin
##elf
##ered
##erversocket
##etition
##exp
##failover
##failureexception
##fileformat
##fish
##fns
##formatwriter
##gement
##getfuture
##groupalsobywindowreshufflefn
##groupby
##ignature
##iled
##imate
##infoimpl
##inner
##inprogress
##iotest
##itude
##jp
##keyvalue
##lr
##lurp
##mall
##managerintegrationtest
##managertest
##maries
##messagelistenercontainer
##met
##meter
##namic
##nced
##numeric
##objectimpl
##oit
##ollow
##ologies
##olved
##onerror
##onfailure
##ontent
##openjdk
##opy
##oring
##othek
##phone
##piling
##pression
##processingfilter
##ptable
##recordsiterator
##redirect
##reduce
##reducer
##revisioncache
##roto
##rowing
##schematest
##sdk
##ssltest
##sstep
##tatemanager
##tel
##tf
##transportfactory
##uniformrandomprovider
##username
##vention
##visible
##yang
##yms
##ystemimpl
##yt
##ything
##yu
##zonecluster
##zu
abb
abstractbytebuf
accommodate
accuracy
actionservlet
activecountry
adc
advisories
alongside
ambarijpalocaltxninterceptor
ambariserver
andre
angularjs
anyways
archinnov
arrive
asruntimeexception
assertionfailurebuilder
astexpression
attendance
authenticating
authenticatorbase
avroio
bfd
blocklets
bonus
bootstrapping
btree
cadence
ccc
cedaf
ceil
cfa
channelinactive
checkpermission
civetweb
classfile
classification
clears
clustercontrollerimpl
combiner
compactiontask
compressing
configures
connectionfactory
consequences
containerreporthandler
cordova
cpus
cus
dagappmaster
dataoutputstream
dbtxnmanager
decorrelaterel
defaultexecutor
defaultjobmasterservicefactory
defaultplanexecutor
defaulttemplatemanager
defaultvalue
delegatingwebmvcconfiguration
devtools
diag
diffs
dimfld
directpipelineresult
discrepancy
displayh
dlog
dockerfiles
dofns
dragging
dtypes
education
exam
executioncontextimpl
executionfailurehandler
extreme
eye
fbc
fifo
filestore
fisheyectl
flinkchainedprogram
forumreport
gerrit
getline
getport
gettime
glibcxx
gridbinarymarshaller
gridtestthread
groovyshell
halt
halted
handleexceptionsinmethodifsupported
hashjoin
headerwriterfilter
hierynomus
hiredate
hostdb
hostroles
httplib
immutabletreetranslator
ims
indextool
indy
initializes
intentionally
internalinjectorcreator
intersection
invokesetup
iostream
isopen
jane
jj
jk
keygen
laf
lecture
libprotobuf
logicalvalues
logid
loginternalinfo
lsp
lst
mailetcontainer
manages
merror
messageserviceimpl
messed
methodinvocationauthorizer
mimetype
mlt
mockups
modals
modifies
myuser
naffected
nbmutexeventprovider
nearest
nelse
nemo
nicely
nifiservicefacadelock
nioservercnxn
nobject
nos
novalocal
nreferences
nsep
numerator
nurl
ofref
opensource
openstack
optimizing
outputformat
overdue
pacemakerstatestorage
pad
parquetreader
partitionlistener
partitiontable
paul
pauses
pep
performant
pix
pkgdown
pkixvalidator
plagiarism
pops
precondition
presents
preserving
projectmergerule
projector
purged
qualifier
queryentity
quotation
recursiveaction
regionname
reinterpret
remotingserviceimpl
replaceall
reporterror
retcode
reversed
revise
rpcwrapper
runinterruptibly
runwithnewcluster
schemamanager
serializableutils
servicetcclinterceptor
servletinitialhandler
sessionhivemetastoreclient
shipments
simpleconsumer
simplestatemachine
singlechroniclequeueexcerpts
slotsharingmanager
sortorder
specially
standardengine
statementimpl
stomptransportfilter
stringarray
syncing
sz
targeted
tee
testingresearchillinois
tfinal
tfor
tim
tlog
tlschannelcredentialsoptions
tojson
told
traced
transformations
transitively
triple
trustedfutureinterruptibletask
typescript
ulr
undeclared
uniqueid
unresponsive
unsure
unzip
updatedocument
useragentfilter
vanilla
verypretty
wider
wont
woodstox
writeandflush
xed
yarnclusterdescriptor
##addrinfo
##aggfunction
##alreadyexistsexception
##amount
##andset
##apply
##ass
##atis
##au
##aver
##basedmap
##bine
##bp
##builderfactory
##bv
##cale
##car
##carbonfile
##certificate
##channelbuilder
##channelhandler
##commandline
##configkeys
##dirs
##dis
##ection
##edcompactionstrategy
##eed
##eeper
##ellchecker
##encies
##endency
##equired
##ern
##errorexception
##errorresponse
##ewed
##execsvc
##facets
##failovercontroller
##failures
##fires
##fromconfig
##fun
##gauge
##git
##gr
##ifest
##ignite
##inja
##isable
##issing
##ists
##iting
##itions
##izationtest
##kill
##kin
##lay
##leaderelectionservice
##libs
##lick
##lier
##logd
##lv
##mappingexception
##methodinvocation
##metricgroup
##nar
##nvironment
##oding
##ogle
##oked
##onversion
##orts
##pdx
##ports
##pplication
##proj
##rape
##ratio
##readerimpl
##replica
##reports
##resent
##restart
##rot
##roved
##rv
##satisfied
##sqlparser
##states
##streamwriter
##success
##tablename
##tableutil
##tach
##tachments
##tateexception
##tokensecretmanager
##tom
##tt
##ued
##uk
##umber
##ume
##vic
##vider
##watch
##while
##xit
##xxx
##zonemanager
abandoned
abstractprotocol
abstractscheduler
accesscontrolexception
accounting
accumulators
acf
acidutils
actionperformed
activating
ada
adj
airnotifier
alarm
appattempt
arq
azurebfs
bde
beforeinvoke
behaviors
bfe
bg
bitbucket
blib
bouncy
buddyallocator
bytearrayoutputstream
cacheaffinitysharedmanager
caf
callbacklistener
callusertask
carefully
cares
cbb
cest
changsha
cloning
colname
colours
communicating
convey
createcontainer
cruc
datacontext
dataregionconfiguration
dbprofile
ddc
defaultfinalclassaccessor
deprecating
deserializecopy
diagnose
discoverymessagenotifierworker
distrib
documenting
documentswriterperthread
doendtag
doforward
donext
dpackaging
dplgridnodename
dy
ej
elected
endless
ety
expiring
extensible
extensionarray
fefc
fetcher
fileinputformat
filestatus
firstyear
flinkplannerimpl
fluent
fromjson
fromstring
functionname
genericsutils
getabsolutepath
getbean
getfield
gitbox
gmake
gossiper
gradleworkermain
gridcacheversion
hagiidunittest
heaprestoreoperation
hivemetastoreauthorizer
httppath
ides
ignitecost
ignitetxmanager
imho
imp
imsglobal
indexable
indexreader
informed
instructor
interacting
interactivedebugger
internalhttpclient
invariant
iobase
iq
ir
isdebugenabled
isolate
jaeger
jarfile
javawhereusedqueryplugin
jaxbcontext
jdbcsequentialfile
jmxmbeanserver
kapua
lastappliedindex
leftover
libdir
liblz
lnk
logicalcorrelate
lwm
mailto
managedinterpretergroup
measurements
mentioning
methodutil
minify
moodlesimple
mw
mx
nadded
napparently
nassertionerror
ndesign
needless
neon
nex
nexpression
nfoo
njson
noqa
notifying
npost
nproperties
nprovide
npull
nsending
ntwo
nwithin
objectid
onefs
ott
overwrites
owning
pac
par
parsetemplate
participate
payloads
pear
phone
pill
placeholders
planbefore
pooledbytebufallocator
popen
postgis
postings
powerpc
principle
publicly
purely
pygit
qname
quoting
readahead
recordreader
relset
removeall
responding
responds
restores
retryloop
rich
robin
romseygeek
rotate
runreadloop
sasi
selfloadclass
semijoin
senders
serverclient
serverstreamlistenerimpl
serviceexception
servicetracker
sessionmanager
ships
shrinkwrap
sigabrt
sn
sniffer
standardhost
stopnodeorhaltfailurehandler
storageproxy
storeincharge
stumbled
submittopologywithopts
superclass
sv
tend
testuser
textformat
tms
trained
trivially
truly
tunnel
txlog
typeextractor
tzdata
uc
udaf
uncompressed
unusual
viewpage
viewvc
vol
webasyncmanagerintegrationfilter
wrappedcallable
writeto
yamlconfigurationloader
yu
zookeepersaslclient
##abel
##accessorimpl
##acing
##aint
##alidate
##alls
##andled
##appendstream
##applicationrunner
##ara
##area
##ared
##arrayequals
##arttest
##asma
##authenticationbroker
##basedsource
##basedvectorresultcollector
##between
##brew
##cation
##cel
##cise
##cle
##compressor
##configurationexception
##crypt
##currency
##cussion
##cycle
##demo
##destinations
##destroyregion
##documents
##dz
##efault
##egral
##encyresolver
##entation
##eploy
##equire
##erry
##estarttest
##etly
##etric
##eventid
##fied
##fileaction
##fills
##finishfuture
##fore
##forexecution
##fr
##fromtext
##groupprovider
##hared
##hashtable
##head
##heartbeatservice
##hfiles
##hibit
##hintsprovider
##hronizer
##iage
##ialog
##icing
##ierung
##ingtest
##instatement
##ipfinder
##ire
##iring
##ison
##iva
##jobtask
##kinesisclient
##language
##las
##leaderservice
##lemessage
##lined
##lli
##managementcontrollerimpl
##matrix
##messageworker
##ncing
##nimal
##nko
##nner
##non
##nts
##odule
##olr
##olumn
##olver
##ompile
##oneous
##oom
##operationhelper
##oxy
##pagestore
##ptor
##queryparser
##queryprocessor
##readmergesorterimpl
##recordbatch
##restriction
##ribe
##ribution
##rik
##rily
##rkst
##roper
##rovider
##rth
##ruct
##scalarfunctionoperator
##sdofn
##securityfilter
##sheets
##ship
##shuttle
##sin
##started
##stateservice
##subscription
##suggester
##tailer
##than
##threadlocalfilter
##title
##tml
##tokenizer
##total
##uces
##ull
##unc
##upling
##urvey
##uted
##validatorexception
##vel
##verage
##vertices
##vi
##voidmethod
##writes
##xc
##xchange
##ya
##zones
abstractbutton
abstractexecution
abstractsecurityheaderfilter
accumulated
activeconnections
addcolumn
addignoredexception
adopted
aem
affectsversions
afl
allopenissues
ambariauthorizationfilter
ambaridelegatingauthenticationfilter
ambaripersistfilter
ambariuserauthorizationfilter
anybody
arrows
artist
asciidoc
assemblies
auths
backports
baserequest
bergmann
blueprintcontainerimpl
cancelling
carbonsource
caseclassserializer
casing
ccd
characteristics
chooses
chromium
clever
collisions
commitlogposition
compacting
completions
composed
computations
computedelegate
configureportlet
connectionpool
contextinitialized
corelos
createbean
createdtime
cur
dac
datadog
dataprocessor
dbcpconnectionpool
deciding
decrement
defaultcomponentregistrar
defaultfs
delegated
dependabot
dependencymanagement
deprecatedlib
deviation
dexec
displayclass
doubles
dual
ece
ehcache
enumerablecalc
evalcodewithname
exceptionmappinginterceptor
executescript
executionvertex
factors
factoryfinder
fdiagnostics
filterfilterchain
fixbigreal
forcepromise
formslib
forwardingclientcalllistener
fred
fromoptions
fst
futex
gbenchmark
ghsa
gib
gii
graalvm
guys
hdf
hierarchicaltestengine
hierarchicaltestexecutor
hood
hwp
ignitionimpl
implications
indirectly
inetaccesshandler
initping
instancebuilder
issuing
istreambuf
iterablecoder
javactaskimpl
javacutaction
jlink
jobresult
jobrun
jshelllauncher
kn
lands
law
legend
lgpl
libparquet
libssl
listenercontainer
lives
loadtests
logicaltypes
lstd
mapnode
material
messageformat
messagereceived
messagetomessagedecoder
metamethod
metaspace
methode
methodoverridefilter
milestone
mocked
modificationstatement
narmojo
nbash
ncomponent
nconnecting
ncontrol
ndocumentation
negotiated
nic
nicer
nimporterror
niotdb
nlook
nnamespace
nnormally
nnotes
nobserved
noserror
nosuchmethodexception
nrhythm
nthough
nthrows
objectlevelreadquery
observables
opaque
oriented
orig
partialeq
partitionedregiondatastore
peerproxymap
persistenceapi
pipelineid
pipelinerunner
possibilities
preferably
prev
producerrecord
profilinganderrorfilter
projectnode
pyrun
quartzscheduler
qunused
rating
rdkafka
reaching
readrecord
reasonably
receipt
reconserver
relocated
reltosqlconvertertest
replicationhandler
resides
resolvable
resourceresolverimpl
resultpartitionwriter
rmiconnector
safer
sake
scbengine
seeks
sequencefile
serverconfiguration
serversessionpackethandler
servicetype
sheetdocumentdisplayer
sideinput
sigaction
simplepie
simplestring
sip
snowball
solrcli
sparkr
speculative
spool
sslcontextservice
standardflowsynchronizer
statemachineupdater
statemanagerimpl
statementrunner
streambuf
streamtableenvironmentimpl
subjects
submittask
suffer
symptoms
synchronousdispatcher
tagsync
taskdefs
te
technologies
technology
testinfo
testruleassertionsrequired
testruleignoretestsuites
testrulesetupteardownchained
testrulestoreclassname
testrulethreadandtestname
teststream
textfield
tplatform
tprotocol
transitions
ua
uct
undocumented
unparse
valuevector
vctrs
vectorreader
webmonitor
webworkbodytagsupport
weiqiang
whicdn
whiteboard
wss
xy
zooutil
##aching
##adays
##ags
##ah
##aps
##arallel
##awesome
##beanintrospector
##bitset
##blproperties
##bor
##branch
##bykey
##capabilities
##categories
##chars
##clidriver
##clienttest
##cludes
##clusterdescriptor
##combine
##concurrentmap
##configurationservice
##cpp
##credential
##cryption
##dden
##ddress
##director
##dist
##download
##dreader
##enumerableconverter
##enumerator
##ependency
##etastore
##etbeans
##etitions
##evel
##evious
##executerequest
##exist
##extensions
##failoverproxyprovider
##fication
##fl
##gebra
##generated
##gl
##gress
##groovytest
##groupcontext
##gth
##gv
##hal
##handlerwrapper
##hir
##hist
##hq
##hren
##iately
##ighbors
##impltest
##imum
##inal
##itymode
##ivery
##ivy
##izes
##jb
##keyspace
##labels
##lable
##lace
##lags
##lake
##lements
##lers
##lessly
##licing
##listed
##listenerimpl
##llel
##mailqueueitem
##marks
##matching
##mental
##mic
##mur
##navigator
##ngress
##nodetest
##np
##nput
##ocable
##old
##omponent
##ordering
##ordinal
##otation
##parsing
##pecs
##period
##plits
##pplies
##ppropriate
##processorimpl
##procfactory
##pu
##queryrequest
##ques
##quest
##rans
##reason
##regation
##rootswork
##rox
##rpcservice
##ruledriver
##rus
##saw
##securitymanager
##selected
##servercallhandler
##sessioncontext
##sist
##sources
##spy
##sum
##sumptions
##tabletest
##tains
##tbl
##tcp
##tempfiles
##threadfactory
##toff
##tofile
##toolkit
##txpreparefuture
##ubectl
##uble
##ubmitter
##uge
##uiz
##ulp
##ult
##uninterruptibly
##unique
##uota
##updatecommand
##uper
##urious
##uritymanager
##ustive
##uto
##uts
##very
##vis
##volume
##warm
##wl
##world
##ybridtimestamp
##yntax
##zq
##zz
aaab
abd
aboda
acquirepage
advantages
ainputstream
alerting
apacheds
arrayutils
arrowexports
assertnull
assist
automaton
avail
awaitnanos
awk
axe
backporting
badly
bang
basefixedwidthvector
basicdatasource
bbd
bigdata
boundaries
branding
brett
bufferreceived
buildks
bytesio
carbonstore
cflags
chainandinvoke
checkcurrentstate
cleans
clientnbi
collectionserializer
columnreaderimpl
combiners
complaining
connectiontest
connectorimpl
consist
containswithinbounds
corecloseexecutor
correction
coupled
customlang
databasename
deabd
defaultmetricssystem
defragmentation
delivering
denes
denial
dependencyresolver
devs
diags
diamond
dies
difficulty
disconnects
dockerjava
documentswriterdeletequeue
dsun
dunittest
duser
dynamicadvisedinterceptor
eaf
ellipsis
emptylist
enclosing
encourage
exceptiontransformingfuture
exinstwithcause
expands
expectations
expectedexceptionstatement
facilityid
feeds
fffad
fffe
fh
filefactory
flash
flaw
followerinfo
ftaps
getblocklocations
getoutputstream
getresource
ggdb
gifhttp
gmshealthmonitor
grpcfuture
grpcutil
gtk
hddsvolume
heartbeats
hidpi
ib
identifies
ignitesecurityprocessor
impersonation
inaccurate
inboundsink
incrementing
inet
initiates
injecting
inspired
inter
interceptedinvocation
invalidated
invariants
japanese
javamail
jcl
jee
jekyll
jlogger
jobsubmissionexception
kex
kick
kills
knoldus
lambdas
leaders
learners
libcurl
libkern
listvector
lmf
localdatetime
logically
logicalrelimplementor
longs
loopback
makefiles
manageable
mapelem
marina
martin
maxcfssegmentsizemb
merely
messagingservice
messy
miles
minificpp
minikdc
mistakes
mor
muted
nanalysis
nbtw
ncaught
ncluster
ndev
ndv
nend
nerrors
nesting
netc
nevent
newestvalue
newlines
nextra
nfailing
nfatal
nfiles
night
njira
nmany
nmclientasyncimpl
nocfsratio
nodeimpl
nodeorder
nonexistent
nonodeexception
nothrow
npage
nprimary
nreplication
nsudo
nsuppose
obfuscate
objectname
ohc
okio
oql
osbyteorder
osswapconstint
outputting
pam
parsenext
partid
permanent
personally
phantomjs
philosophy
pickler
platformid
plugininfo
po
polymorphic
poolinghttpclientconnectionmanager
populates
populating
population
positional
prepareandexecute
prerequisites
prharedundancyprovider
privatekey
processmailbox
processnext
projectenddate
projectjoindate
protocolexec
prove
pubsubio
pushes
putifabsent
putkudu
qjournal
rationale
reconfiguration
recordbatchwriter
recordkey
refinement
reflects
repeats
replicaservice
riot
robbe
runalltests
rwt
sam
scantask
science
searchrequest
sequenceid
setstatus
shapes
showcase
simdlevel
simplicity
slows
spelling
spoutexecutor
sqlparserimpl
sqlshuttle
sslengine
stormconf
streamingtombstonehistogrambuilder
superuser
syncer
tableimpl
teradata
textwriter
thereby
tight
tnew
tokenizer
transmission
transposed
trick
truststorepassword
tryinvokesetupfor
uncheck
uniapply
unneeded
untypedactor
updateunconditionally
upserts
uptime
userprofil
usg
uuids
validatenamespace
validatinginvocation
van
vectorforward
vignette
vio
wadl
wasted
wdeprecated
withprepare
workgroupcategoryname
wshadow
xadi
xp
zap
zkcontroller
zoocache
##K
##N
##U
##[
##]
